{
  "version": "1.0",
  "truncation": {
    "direction": "Right",
    "max_length": 2000,
    "strategy": "LongestFirst",
    "stride": 0
  },
  "padding": {
    "strategy": {
      "Fixed": 2000
    },
    "direction": "Right",
    "pad_to_multiple_of": null,
    "pad_id": 0,
    "pad_type_id": 0,
    "pad_token": "<pad>"
  },
  "added_tokens": [
    {
      "id": 0,
      "content": "<pad>",
      "single_word": false,
      "lstrip": false,
      "rstrip": false,
      "normalized": false,
      "special": true
    },
    {
      "id": 1,
      "content": "<sos>",
      "single_word": false,
      "lstrip": false,
      "rstrip": false,
      "normalized": false,
      "special": true
    },
    {
      "id": 2,
      "content": "<eos>",
      "single_word": false,
      "lstrip": false,
      "rstrip": false,
      "normalized": false,
      "special": true
    },
    {
      "id": 3,
      "content": "<abstract>",
      "single_word": false,
      "lstrip": false,
      "rstrip": false,
      "normalized": false,
      "special": true
    },
    {
      "id": 4,
      "content": "<assert>",
      "single_word": false,
      "lstrip": false,
      "rstrip": false,
      "normalized": false,
      "special": true
    },
    {
      "id": 5,
      "content": "<boolean>",
      "single_word": false,
      "lstrip": false,
      "rstrip": false,
      "normalized": false,
      "special": true
    },
    {
      "id": 6,
      "content": "<break>",
      "single_word": false,
      "lstrip": false,
      "rstrip": false,
      "normalized": false,
      "special": true
    },
    {
      "id": 7,
      "content": "<byte>",
      "single_word": false,
      "lstrip": false,
      "rstrip": false,
      "normalized": false,
      "special": true
    },
    {
      "id": 8,
      "content": "<case>",
      "single_word": false,
      "lstrip": false,
      "rstrip": false,
      "normalized": false,
      "special": true
    },
    {
      "id": 9,
      "content": "<catch>",
      "single_word": false,
      "lstrip": false,
      "rstrip": false,
      "normalized": false,
      "special": true
    },
    {
      "id": 10,
      "content": "<char>",
      "single_word": false,
      "lstrip": false,
      "rstrip": false,
      "normalized": false,
      "special": true
    },
    {
      "id": 11,
      "content": "<class>",
      "single_word": false,
      "lstrip": false,
      "rstrip": false,
      "normalized": false,
      "special": true
    },
    {
      "id": 12,
      "content": "<const>",
      "single_word": false,
      "lstrip": false,
      "rstrip": false,
      "normalized": false,
      "special": true
    },
    {
      "id": 13,
      "content": "<continue>",
      "single_word": false,
      "lstrip": false,
      "rstrip": false,
      "normalized": false,
      "special": true
    },
    {
      "id": 14,
      "content": "<default>",
      "single_word": false,
      "lstrip": false,
      "rstrip": false,
      "normalized": false,
      "special": true
    },
    {
      "id": 15,
      "content": "<do>",
      "single_word": false,
      "lstrip": false,
      "rstrip": false,
      "normalized": false,
      "special": true
    },
    {
      "id": 16,
      "content": "<double>",
      "single_word": false,
      "lstrip": false,
      "rstrip": false,
      "normalized": false,
      "special": true
    },
    {
      "id": 17,
      "content": "<else>",
      "single_word": false,
      "lstrip": false,
      "rstrip": false,
      "normalized": false,
      "special": true
    },
    {
      "id": 18,
      "content": "<enum>",
      "single_word": false,
      "lstrip": false,
      "rstrip": false,
      "normalized": false,
      "special": true
    },
    {
      "id": 19,
      "content": "<extends>",
      "single_word": false,
      "lstrip": false,
      "rstrip": false,
      "normalized": false,
      "special": true
    },
    {
      "id": 20,
      "content": "<final>",
      "single_word": false,
      "lstrip": false,
      "rstrip": false,
      "normalized": false,
      "special": true
    },
    {
      "id": 21,
      "content": "<finally>",
      "single_word": false,
      "lstrip": false,
      "rstrip": false,
      "normalized": false,
      "special": true
    },
    {
      "id": 22,
      "content": "<float>",
      "single_word": false,
      "lstrip": false,
      "rstrip": false,
      "normalized": false,
      "special": true
    },
    {
      "id": 23,
      "content": "<for>",
      "single_word": false,
      "lstrip": false,
      "rstrip": false,
      "normalized": false,
      "special": true
    },
    {
      "id": 24,
      "content": "<goto>",
      "single_word": false,
      "lstrip": false,
      "rstrip": false,
      "normalized": false,
      "special": true
    },
    {
      "id": 25,
      "content": "<if>",
      "single_word": false,
      "lstrip": false,
      "rstrip": false,
      "normalized": false,
      "special": true
    },
    {
      "id": 26,
      "content": "<implements>",
      "single_word": false,
      "lstrip": false,
      "rstrip": false,
      "normalized": false,
      "special": true
    },
    {
      "id": 27,
      "content": "<import>",
      "single_word": false,
      "lstrip": false,
      "rstrip": false,
      "normalized": false,
      "special": true
    },
    {
      "id": 28,
      "content": "<instanceof>",
      "single_word": false,
      "lstrip": false,
      "rstrip": false,
      "normalized": false,
      "special": true
    },
    {
      "id": 29,
      "content": "<int>",
      "single_word": false,
      "lstrip": false,
      "rstrip": false,
      "normalized": false,
      "special": true
    },
    {
      "id": 30,
      "content": "<interface>",
      "single_word": false,
      "lstrip": false,
      "rstrip": false,
      "normalized": false,
      "special": true
    },
    {
      "id": 31,
      "content": "<long>",
      "single_word": false,
      "lstrip": false,
      "rstrip": false,
      "normalized": false,
      "special": true
    },
    {
      "id": 32,
      "content": "<native>",
      "single_word": false,
      "lstrip": false,
      "rstrip": false,
      "normalized": false,
      "special": true
    },
    {
      "id": 33,
      "content": "<new>",
      "single_word": false,
      "lstrip": false,
      "rstrip": false,
      "normalized": false,
      "special": true
    },
    {
      "id": 34,
      "content": "<package>",
      "single_word": false,
      "lstrip": false,
      "rstrip": false,
      "normalized": false,
      "special": true
    },
    {
      "id": 35,
      "content": "<private>",
      "single_word": false,
      "lstrip": false,
      "rstrip": false,
      "normalized": false,
      "special": true
    },
    {
      "id": 36,
      "content": "<protected>",
      "single_word": false,
      "lstrip": false,
      "rstrip": false,
      "normalized": false,
      "special": true
    },
    {
      "id": 37,
      "content": "<public>",
      "single_word": false,
      "lstrip": false,
      "rstrip": false,
      "normalized": false,
      "special": true
    },
    {
      "id": 38,
      "content": "<return>",
      "single_word": false,
      "lstrip": false,
      "rstrip": false,
      "normalized": false,
      "special": true
    },
    {
      "id": 39,
      "content": "<short>",
      "single_word": false,
      "lstrip": false,
      "rstrip": false,
      "normalized": false,
      "special": true
    },
    {
      "id": 40,
      "content": "<static>",
      "single_word": false,
      "lstrip": false,
      "rstrip": false,
      "normalized": false,
      "special": true
    },
    {
      "id": 41,
      "content": "<strictfp>",
      "single_word": false,
      "lstrip": false,
      "rstrip": false,
      "normalized": false,
      "special": true
    },
    {
      "id": 42,
      "content": "<super>",
      "single_word": false,
      "lstrip": false,
      "rstrip": false,
      "normalized": false,
      "special": true
    },
    {
      "id": 43,
      "content": "<switch>",
      "single_word": false,
      "lstrip": false,
      "rstrip": false,
      "normalized": false,
      "special": true
    },
    {
      "id": 44,
      "content": "<synchronized>",
      "single_word": false,
      "lstrip": false,
      "rstrip": false,
      "normalized": false,
      "special": true
    },
    {
      "id": 45,
      "content": "<this>",
      "single_word": false,
      "lstrip": false,
      "rstrip": false,
      "normalized": false,
      "special": true
    },
    {
      "id": 46,
      "content": "<throw>",
      "single_word": false,
      "lstrip": false,
      "rstrip": false,
      "normalized": false,
      "special": true
    },
    {
      "id": 47,
      "content": "<throws>",
      "single_word": false,
      "lstrip": false,
      "rstrip": false,
      "normalized": false,
      "special": true
    },
    {
      "id": 48,
      "content": "<transient>",
      "single_word": false,
      "lstrip": false,
      "rstrip": false,
      "normalized": false,
      "special": true
    },
    {
      "id": 49,
      "content": "<try>",
      "single_word": false,
      "lstrip": false,
      "rstrip": false,
      "normalized": false,
      "special": true
    },
    {
      "id": 50,
      "content": "<void>",
      "single_word": false,
      "lstrip": false,
      "rstrip": false,
      "normalized": false,
      "special": true
    },
    {
      "id": 51,
      "content": "<volatile>",
      "single_word": false,
      "lstrip": false,
      "rstrip": false,
      "normalized": false,
      "special": true
    },
    {
      "id": 52,
      "content": "<while>",
      "single_word": false,
      "lstrip": false,
      "rstrip": false,
      "normalized": false,
      "special": true
    },
    {
      "id": 53,
      "content": "<=>",
      "single_word": false,
      "lstrip": false,
      "rstrip": false,
      "normalized": false,
      "special": true
    },
    {
      "id": 54,
      "content": "<+>",
      "single_word": false,
      "lstrip": false,
      "rstrip": false,
      "normalized": false,
      "special": true
    },
    {
      "id": 55,
      "content": "<->",
      "single_word": false,
      "lstrip": false,
      "rstrip": false,
      "normalized": false,
      "special": true
    },
    {
      "id": 56,
      "content": "<*>",
      "single_word": false,
      "lstrip": false,
      "rstrip": false,
      "normalized": false,
      "special": true
    },
    {
      "id": 57,
      "content": "</>",
      "single_word": false,
      "lstrip": false,
      "rstrip": false,
      "normalized": false,
      "special": true
    },
    {
      "id": 58,
      "content": "<%>",
      "single_word": false,
      "lstrip": false,
      "rstrip": false,
      "normalized": false,
      "special": true
    },
    {
      "id": 59,
      "content": "<++>",
      "single_word": false,
      "lstrip": false,
      "rstrip": false,
      "normalized": false,
      "special": true
    },
    {
      "id": 60,
      "content": "<-->",
      "single_word": false,
      "lstrip": false,
      "rstrip": false,
      "normalized": false,
      "special": true
    },
    {
      "id": 61,
      "content": "<!>",
      "single_word": false,
      "lstrip": false,
      "rstrip": false,
      "normalized": false,
      "special": true
    },
    {
      "id": 62,
      "content": "<==>",
      "single_word": false,
      "lstrip": false,
      "rstrip": false,
      "normalized": false,
      "special": true
    },
    {
      "id": 63,
      "content": "<!=>",
      "single_word": false,
      "lstrip": false,
      "rstrip": false,
      "normalized": false,
      "special": true
    },
    {
      "id": 64,
      "content": "<greater>",
      "single_word": false,
      "lstrip": false,
      "rstrip": false,
      "normalized": false,
      "special": true
    },
    {
      "id": 65,
      "content": "<greater_equal>",
      "single_word": false,
      "lstrip": false,
      "rstrip": false,
      "normalized": false,
      "special": true
    },
    {
      "id": 66,
      "content": "<lesser>",
      "single_word": false,
      "lstrip": false,
      "rstrip": false,
      "normalized": false,
      "special": true
    },
    {
      "id": 67,
      "content": "<lesser_equal>",
      "single_word": false,
      "lstrip": false,
      "rstrip": false,
      "normalized": false,
      "special": true
    },
    {
      "id": 68,
      "content": "<&&>",
      "single_word": false,
      "lstrip": false,
      "rstrip": false,
      "normalized": false,
      "special": true
    },
    {
      "id": 69,
      "content": "<||>",
      "single_word": false,
      "lstrip": false,
      "rstrip": false,
      "normalized": false,
      "special": true
    },
    {
      "id": 70,
      "content": "<?>",
      "single_word": false,
      "lstrip": false,
      "rstrip": false,
      "normalized": false,
      "special": true
    },
    {
      "id": 71,
      "content": "<:>",
      "single_word": false,
      "lstrip": false,
      "rstrip": false,
      "normalized": false,
      "special": true
    },
    {
      "id": 72,
      "content": "<~>",
      "single_word": false,
      "lstrip": false,
      "rstrip": false,
      "normalized": false,
      "special": true
    },
    {
      "id": 73,
      "content": "<double_lesser>",
      "single_word": false,
      "lstrip": false,
      "rstrip": false,
      "normalized": false,
      "special": true
    },
    {
      "id": 74,
      "content": "<double_greater>",
      "single_word": false,
      "lstrip": false,
      "rstrip": false,
      "normalized": false,
      "special": true
    },
    {
      "id": 75,
      "content": "<triple_greater>",
      "single_word": false,
      "lstrip": false,
      "rstrip": false,
      "normalized": false,
      "special": true
    },
    {
      "id": 76,
      "content": "<&>",
      "single_word": false,
      "lstrip": false,
      "rstrip": false,
      "normalized": false,
      "special": true
    },
    {
      "id": 77,
      "content": "<^>",
      "single_word": false,
      "lstrip": false,
      "rstrip": false,
      "normalized": false,
      "special": true
    },
    {
      "id": 78,
      "content": "<|>",
      "single_word": false,
      "lstrip": false,
      "rstrip": false,
      "normalized": false,
      "special": true
    },
    {
      "id": 79,
      "content": "<{>",
      "single_word": false,
      "lstrip": false,
      "rstrip": false,
      "normalized": false,
      "special": true
    },
    {
      "id": 80,
      "content": "<}>",
      "single_word": false,
      "lstrip": false,
      "rstrip": false,
      "normalized": false,
      "special": true
    },
    {
      "id": 81,
      "content": "<[>",
      "single_word": false,
      "lstrip": false,
      "rstrip": false,
      "normalized": false,
      "special": true
    },
    {
      "id": 82,
      "content": "<]>",
      "single_word": false,
      "lstrip": false,
      "rstrip": false,
      "normalized": false,
      "special": true
    },
    {
      "id": 83,
      "content": "<(>",
      "single_word": false,
      "lstrip": false,
      "rstrip": false,
      "normalized": false,
      "special": true
    },
    {
      "id": 84,
      "content": "<)>",
      "single_word": false,
      "lstrip": false,
      "rstrip": false,
      "normalized": false,
      "special": true
    },
    {
      "id": 85,
      "content": "<;>",
      "single_word": false,
      "lstrip": false,
      "rstrip": false,
      "normalized": false,
      "special": true
    },
    {
      "id": 86,
      "content": "<@>",
      "single_word": false,
      "lstrip": false,
      "rstrip": false,
      "normalized": false,
      "special": true
    },
    {
      "id": 87,
      "content": "<...>",
      "single_word": false,
      "lstrip": false,
      "rstrip": false,
      "normalized": false,
      "special": true
    },
    {
      "id": 88,
      "content": "<null>",
      "single_word": false,
      "lstrip": false,
      "rstrip": false,
      "normalized": false,
      "special": true
    },
    {
      "id": 89,
      "content": "<true>",
      "single_word": false,
      "lstrip": false,
      "rstrip": false,
      "normalized": false,
      "special": true
    },
    {
      "id": 90,
      "content": "<false>",
      "single_word": false,
      "lstrip": false,
      "rstrip": false,
      "normalized": false,
      "special": true
    },
    {
      "id": 91,
      "content": "<n>",
      "single_word": false,
      "lstrip": false,
      "rstrip": false,
      "normalized": false,
      "special": true
    }
  ],
  "normalizer": null,
  "pre_tokenizer": {
    "type": "ByteLevel",
    "add_prefix_space": false,
    "trim_offsets": true,
    "use_regex": true
  },
  "post_processor": {
    "type": "ByteLevel",
    "add_prefix_space": true,
    "trim_offsets": true,
    "use_regex": true
  },
  "decoder": {
    "type": "ByteLevel",
    "add_prefix_space": true,
    "trim_offsets": true,
    "use_regex": true
  },
  "model": {
    "type": "BPE",
    "dropout": null,
    "unk_token": null,
    "continuing_subword_prefix": null,
    "end_of_word_suffix": null,
    "fuse_unk": false,
    "vocab": {
      "<pad>": 0,
      "<sos>": 1,
      "<eos>": 2,
      "<abstract>": 3,
      "<assert>": 4,
      "<boolean>": 5,
      "<break>": 6,
      "<byte>": 7,
      "<case>": 8,
      "<catch>": 9,
      "<char>": 10,
      "<class>": 11,
      "<const>": 12,
      "<continue>": 13,
      "<default>": 14,
      "<do>": 15,
      "<double>": 16,
      "<else>": 17,
      "<enum>": 18,
      "<extends>": 19,
      "<final>": 20,
      "<finally>": 21,
      "<float>": 22,
      "<for>": 23,
      "<goto>": 24,
      "<if>": 25,
      "<implements>": 26,
      "<import>": 27,
      "<instanceof>": 28,
      "<int>": 29,
      "<interface>": 30,
      "<long>": 31,
      "<native>": 32,
      "<new>": 33,
      "<package>": 34,
      "<private>": 35,
      "<protected>": 36,
      "<public>": 37,
      "<return>": 38,
      "<short>": 39,
      "<static>": 40,
      "<strictfp>": 41,
      "<super>": 42,
      "<switch>": 43,
      "<synchronized>": 44,
      "<this>": 45,
      "<throw>": 46,
      "<throws>": 47,
      "<transient>": 48,
      "<try>": 49,
      "<void>": 50,
      "<volatile>": 51,
      "<while>": 52,
      "<=>": 53,
      "<+>": 54,
      "<->": 55,
      "<*>": 56,
      "</>": 57,
      "<%>": 58,
      "<++>": 59,
      "<-->": 60,
      "<!>": 61,
      "<==>": 62,
      "<!=>": 63,
      "<greater>": 64,
      "<greater_equal>": 65,
      "<lesser>": 66,
      "<lesser_equal>": 67,
      "<&&>": 68,
      "<||>": 69,
      "<?>": 70,
      "<:>": 71,
      "<~>": 72,
      "<double_lesser>": 73,
      "<double_greater>": 74,
      "<triple_greater>": 75,
      "<&>": 76,
      "<^>": 77,
      "<|>": 78,
      "<{>": 79,
      "<}>": 80,
      "<[>": 81,
      "<]>": 82,
      "<(>": 83,
      "<)>": 84,
      "<;>": 85,
      "<@>": 86,
      "<...>": 87,
      "<null>": 88,
      "<true>": 89,
      "<false>": 90,
      "<n>": 91,
      "!": 92,
      "\"": 93,
      "#": 94,
      "$": 95,
      "%": 96,
      "&": 97,
      "'": 98,
      "(": 99,
      ")": 100,
      "*": 101,
      "+": 102,
      ",": 103,
      "-": 104,
      ".": 105,
      "/": 106,
      "0": 107,
      "1": 108,
      "2": 109,
      "3": 110,
      "4": 111,
      "5": 112,
      "6": 113,
      "7": 114,
      "8": 115,
      "9": 116,
      ":": 117,
      ";": 118,
      "<": 119,
      "=": 120,
      ">": 121,
      "?": 122,
      "@": 123,
      "A": 124,
      "B": 125,
      "C": 126,
      "D": 127,
      "E": 128,
      "F": 129,
      "G": 130,
      "H": 131,
      "I": 132,
      "J": 133,
      "K": 134,
      "L": 135,
      "M": 136,
      "N": 137,
      "O": 138,
      "P": 139,
      "Q": 140,
      "R": 141,
      "S": 142,
      "T": 143,
      "U": 144,
      "V": 145,
      "W": 146,
      "X": 147,
      "Y": 148,
      "Z": 149,
      "[": 150,
      "\\": 151,
      "]": 152,
      "^": 153,
      "_": 154,
      "`": 155,
      "a": 156,
      "b": 157,
      "c": 158,
      "d": 159,
      "e": 160,
      "f": 161,
      "g": 162,
      "h": 163,
      "i": 164,
      "j": 165,
      "k": 166,
      "l": 167,
      "m": 168,
      "n": 169,
      "o": 170,
      "p": 171,
      "q": 172,
      "r": 173,
      "s": 174,
      "t": 175,
      "u": 176,
      "v": 177,
      "w": 178,
      "x": 179,
      "y": 180,
      "z": 181,
      "{": 182,
      "|": 183,
      "}": 184,
      "~": 185,
      "ĉ": 186,
      "Ċ": 187,
      "Ġ": 188,
      "><": 189,
      "Ġ<": 190,
      "ĠĠ": 191,
      "<(": 192,
      "er": 193,
      ")><": 194,
      ";><": 195,
      "es": 196,
      "on": 197,
      "at": 198,
      ")><;><": 199,
      "or": 200,
      "ĠĠĠ": 201,
      "<(><": 202,
      "in": 203,
      "en": 204,
      "et": 205,
      "as": 206,
      "ser": 207,
      "al": 208,
      "th": 209,
      ")>": 210,
      "ic": 211,
      "re": 212,
      "ion": 213,
      "est": 214,
      "<)><;><": 215,
      "an": 216,
      "ar": 217,
      "ĉĠĠĠ": 218,
      "Ġ\"": 219,
      "ct": 220,
      "sert": 221,
      "is": 222,
      "it": 223,
      "le": 224,
      "mp": 225,
      "ing": 226,
      "assert": 227,
      "tr": 228,
      "ed": 229,
      "<;><": 230,
      "get": 231,
      "ou": 232,
      "=>": 233,
      "Ġ<*": 234,
      "/>": 235,
      "ent": 236,
      ")><)><;><": 237,
      "se": 238,
      "id": 239,
      "Ġ<{": 240,
      "Ġ<=>": 241,
      "}><": 242,
      "ce": 243,
      "ro": 244,
      "ort": 245,
      "imp": 246,
      "ay": 247,
      "<(><)>": 248,
      "st": 249,
      "ub": 250,
      "<(>\"": 251,
      "il": 252,
      ".<": 253,
      "am": 254,
      "Ġ<{><": 255,
      "Ġc": 256,
      "Test": 257,
      "/><": 258,
      "import": 259,
      "ate": 260,
      "qu": 261,
      "te": 262,
      "lic": 263,
      "pe": 264,
      "\",": 265,
      "@>": 266,
      "ne": 267,
      "Ġ<*>": 268,
      "ad": 269,
      "Ġp": 270,
      "ublic": 271,
      "public": 272,
      "\"<": 273,
      "ĠĠĠĠ": 274,
      "ck": 275,
      "od": 276,
      "Ġor": 277,
      "Ġ<@>": 278,
      "ch": 279,
      "lay": 280,
      "Ġ<}><": 281,
      "layer": 282,
      "ul": 283,
      "Ġt": 284,
      "Ġth": 285,
      "pt": 286,
      "new": 287,
      "ag": 288,
      "vo": 289,
      "\"<)><;><": 290,
      "Ex": 291,
      "ex": 292,
      "<:": 293,
      "ur": 294,
      "ap": 295,
      "Ġs": 296,
      "ect": 297,
      "ess": 298,
      "void": 299,
      "Str": 300,
      "un": 301,
      "->": 302,
      "Ġorg": 303,
      "ject": 304,
      "ue": 305,
      "Ġthe": 306,
      "Th": 307,
      "ut": 308,
      "String": 309,
      "ation": 310,
      "ver": 311,
      "ĠA": 312,
      "*><": 313,
      "ard": 314,
      "ol": 315,
      "ption": 316,
      "ass": 317,
      "/></>": 318,
      "reat": 319,
      "<(><)><": 320,
      "nt": 321,
      "ig": 322,
      "cl": 323,
      "Re": 324,
      "als": 325,
      "ĠL": 326,
      "om": 327,
      "age": 328,
      "<(><)><;><": 329,
      "ception": 330,
      "Ġm": 331,
      "Con": 332,
      "add": 333,
      "if": 334,
      "ock": 335,
      "Exception": 336,
      "ode": 337,
      "ame": 338,
      "Equ": 339,
      "les": 340,
      "Ġis": 341,
      "per": 342,
      "uth": 343,
      "-><": 344,
      "In": 345,
      "layerA": 346,
      "bject": 347,
      "That": 348,
      "St": 349,
      "reater": 350,
      "greater": 351,
      "ot": 352,
      "Equals": 353,
      "ype": 354,
      "lesser": 355,
      "ith": 356,
      "ab": 357,
      "ri": 358,
      "AT": 359,
      "Ġ1": 360,
      "<(><)><)><;><": 361,
      "Ġo": 362,
      "um": 363,
      "--><": 364,
      "and": 365,
      "ain": 366,
      ",<": 367,
      "ase": 368,
      "class": 369,
      "Ġ<+": 370,
      "Ġ<*><": 371,
      "Object": 372,
      "--><--><": 373,
      "li": 374,
      "ist": 375,
      "ĠS": 376,
      "con": 377,
      "ĠC": 378,
      "av": 379,
      "ĠP": 380,
      "*><*><": 381,
      "der": 382,
      "IN": 383,
      "one": 384,
      "fin": 385,
      "ult": 386,
      "Type": 387,
      "act": 388,
      "ws": 389,
      "lo": 390,
      "set": 391,
      "Ġn": 392,
      "icen": 393,
      "ers": 394,
      "urn": 395,
      "Res": 396,
      "res": 397,
      "To": 398,
      "ull": 399,
      "Ġd": 400,
      "for": 401,
      "ld": 402,
      "Ġb": 403,
      "val": 404,
      "<)><)><;><": 405,
      "(>": 406,
      "Val": 407,
      "<)><": 408,
      "Card": 409,
      ")>.": 410,
      "BAT": 411,
      "</></>": 412,
      "wh": 413,
      "Ġtest": 414,
      "As": 415,
      "icense": 416,
      "int": 417,
      "ount": 418,
      "ib": 419,
      "ile": 420,
      "Ġa": 421,
      "ken": 422,
      "eturn": 423,
      "ment": 424,
      "stat": 425,
      "im": 426,
      "Ġf": 427,
      "<(><)>,": 428,
      "Zone": 429,
      "thro": 430,
      "up": 431,
      "Pro": 432,
      "able": 433,
      "ĠplayerA": 434,
      "final": 435,
      "<}><": 436,
      "quest": 437,
      "Ġ2": 438,
      "unit": 439,
      "xt": 440,
      "Ġin": 441,
      "static": 442,
      "<(><)>.": 443,
      "ht": 444,
      "our": 445,
      "junit": 446,
      "throws": 447,
      "ec": 448,
      "00": 449,
      "che": 450,
      "trib": 451,
      "LE": 452,
      "op": 453,
      "\"<)><)><;><": 454,
      "date": 455,
      "ĠI": 456,
      "ĠLicense": 457,
      "addCard": 458,
      "ute": 459,
      "Ġw": 460,
      "ath": 461,
      "ĠO": 462,
      "ey": 463,
      "fig": 464,
      "iz": 465,
      "ps": 466,
      "Ġ<(>": 467,
      "Ġof": 468,
      "IE": 469,
      "layerB": 470,
      "ty": 471,
      "ter": 472,
      "pa": 473,
      "RE": 474,
      "pon": 475,
      "ity": 476,
      "lect": 477,
      "rr": 478,
      "test": 479,
      "Assert": 480,
      "><)><;><": 481,
      "par": 482,
      "Tr": 483,
      "Node": 484,
      "ĠB": 485,
      "Ġ<+>": 486,
      "Mock": 487,
      "ON": 488,
      "Ġex": 489,
      "tp": 490,
      "Ser": 491,
      "Auth": 492,
      "Ġre": 493,
      "Ġto": 494,
      "uil": 495,
      "pr": 496,
      "ĠW": 497,
      "\"<)><": 498,
      "text": 499,
      "alse": 500,
      "cted": 501,
      "Name": 502,
      "ava": 503,
      "List": 504,
      "ory": 505,
      "ponse": 506,
      "ore": 507,
      "tep": 508,
      "do": 509,
      "Ġj": 510,
      "ang": 511,
      "Count": 512,
      "Step": 513,
      "ould": 514,
      "red": 515,
      "ource": 516,
      "null": 517,
      "ice": 518,
      "vate": 519,
      "Ġ<*></><": 520,
      "hase": 521,
      ">,": 522,
      "ll": 523,
      "Ġcon": 524,
      "haseStep": 525,
      "hould": 526,
      "With": 527,
      "end": 528,
      "Request": 529,
      "ure": 530,
      "cr": 531,
      "Par": 532,
      "Token": 533,
      "cess": 534,
      "ail": 535,
      "ery": 536,
      "atch": 537,
      "oo": 538,
      "En": 539,
      "Ġe": 540,
      "ĠU": 541,
      "Value": 542,
      "--><--><--><--><": 543,
      "Gr": 544,
      "to": 545,
      "LD": 546,
      "ĠR": 547,
      "ER": 548,
      ";>": 549,
      "IT": 550,
      "el": 551,
      "OM": 552,
      "when": 553,
      "com": 554,
      "lement": 555,
      "At": 556,
      "ĠD": 557,
      "ions": 558,
      "FIE": 559,
      "ĠM": 560,
      "ance": 561,
      "Return": 562,
      "update": 563,
      "pro": 564,
      "Id": 565,
      "psl": 566,
      "NT": 567,
      "pri": 568,
      "FIELD": 569,
      "Ch": 570,
      "Ġun": 571,
      "Ġ0": 572,
      "ob": 573,
      "><)>": 574,
      "Ġ<+><": 575,
      "Ġh": 576,
      "TLE": 577,
      "BATTLE": 578,
      "BATTLEFIELD": 579,
      "ĠString": 580,
      "ite": 581,
      "erm": 582,
      "ant": 583,
      "AS": 584,
      "ast": 585,
      "private": 586,
      "ata": 587,
      "Ġshould": 588,
      "ime": 589,
      "ĠPhaseStep": 590,
      "tain": 591,
      "Ġl": 592,
      "<:><": 593,
      "\",<": 594,
      "lient": 595,
      "fer": 596,
      "ubject": 597,
      "playerA": 598,
      "ito": 599,
      "ĠException": 600,
      "Serv": 601,
      "auth": 602,
      "rray": 603,
      "pected": 604,
      "result": 605,
      "ie": 606,
      "til": 607,
      "Set": 608,
      "True": 609,
      "this": 610,
      "\\\"": 611,
      "Ġg": 612,
      "Map": 613,
      "Response": 614,
      "{>": 615,
      "ir": 616,
      "perty": 617,
      "Context": 618,
      "reate": 619,
      "Ġjava": 620,
      "true": 621,
      "ccess": 622,
      "MA": 623,
      "po": 624,
      "then": 625,
      "co": 626,
      "<)>.": 627,
      "Col": 628,
      "ve": 629,
      "\"<)>": 630,
      "ST": 631,
      "out": 632,
      "ize": 633,
      "ĠF": 634,
      "us": 635,
      "tribute": 636,
      "COM": 637,
      "ger": 638,
      "}>": 639,
      "nd": 640,
      "Ġ</></>": 641,
      "ies": 642,
      "/><*><*><": 643,
      "ator": 644,
      "COMBAT": 645,
      "Ġunder": 646,
      "thenReturn": 647,
      "rom": 648,
      "pslObject": 649,
      "ND": 650,
      ":>": 651,
      "Ġcom": 652,
      "ow": 653,
      "umn": 654,
      "son": 655,
      "ĠT": 656,
      "Ġan": 657,
      "ost": 658,
      "app": 659,
      "Ġ<{>": 660,
      "put": 661,
      "Element": 662,
      "Config": 663,
      "ated": 664,
      "=><": 665,
      "try": 666,
      "all": 667,
      "Ġand": 668,
      "oc": 669,
      "em": 670,
      "]>": 671,
      "SE": 672,
      "parse": 673,
      "Cl": 674,
      "mock": 675,
      "ache": 676,
      "amp": 677,
      "><)><)><;><": 678,
      "uilder": 679,
      "Ġy": 680,
      "ide": 681,
      "http": 682,
      "Ġu": 683,
      "UT": 684,
      "Ġget": 685,
      "Not": 686,
      "util": 687,
      "Ġwith": 688,
      "<)>,": 689,
      "ip": 690,
      "Path": 691,
      "of": 692,
      "false": 693,
      "ack": 694,
      "ession": 695,
      "tribut": 696,
      "Client": 697,
      "Util": 698,
      "ings": 699,
      "[>": 700,
      "return": 701,
      "art": 702,
      "aph": 703,
      "ext": 704,
      "stance": 705,
      "Service": 706,
      "entic": 707,
      "opy": 708,
      "De": 709,
      "Be": 710,
      "mon": 711,
      "MAIN": 712,
      "wor": 713,
      "essage": 714,
      "ight": 715,
      "Array": 716,
      "Null": 717,
      "ĠplayerB": 718,
      "pack": 719,
      "*><*><*><*><": 720,
      "01": 721,
      "<:></></>": 722,
      "omp": 723,
      "value": 724,
      "Property": 725,
      "valid": 726,
      "dd": 727,
      "ition": 728,
      "ler": 729,
      "package": 730,
      "<(><)><)>.": 731,
      "ww": 732,
      "eth": 733,
      "aml": 734,
      "fa": 735,
      "ĠH": 736,
      "ield": 737,
      "For": 738,
      "iter": 739,
      "ĉĉ": 740,
      "Time": 741,
      "ĠE": 742,
      "Ġdis": 743,
      "By": 744,
      "><}><": 745,
      "Se": 746,
      "ha": 747,
      "Ġnot": 748,
      "pell": 749,
      "Ġmay": 750,
      "Ġon": 751,
      "exec": 752,
      "AR": 753,
      "Key": 754,
      "Builder": 755,
      "Ġ\"<": 756,
      "CE": 757,
      "read": 758,
      "tains": 759,
      "ĠĠĠĠĠĠĠĠ": 760,
      "[><": 761,
      "HA": 762,
      "anent": 763,
      "ign": 764,
      "Class": 765,
      "subject": 766,
      "Up": 767,
      "odes": 768,
      "entication": 769,
      "Of": 770,
      "ly": 771,
      "ĠN": 772,
      "query": 773,
      "ash": 774,
      "Ġst": 775,
      "Ġresult": 776,
      "</><": 777,
      "ener": 778,
      "db": 779,
      "Ġr": 780,
      "ermanent": 781,
      "actory": 782,
      "Qu": 783,
      "common": 784,
      "ĠV": 785,
      "PRE": 786,
      "not": 787,
      "Is": 788,
      "ma": 789,
      "ois": 790,
      "UR": 791,
      "ning": 792,
      "Hand": 793,
      "expected": 794,
      "Ġfile": 795,
      "Ġ3": 796,
      "sit": 797,
      "aw": 798,
      "apache": 799,
      "Ġcreat": 800,
      "ethod": 801,
      "log": 802,
      "execute": 803,
      "ripe": 804,
      "(><": 805,
      "config": 806,
      "uild": 807,
      "File": 808,
      "ION": 809,
      "False": 810,
      "Ġdistribut": 811,
      "ED": 812,
      "create": 813,
      "let": 814,
      "ction": 815,
      "ĠTest": 816,
      "wr": 817,
      "--><--><--><--><--><--><--><--><": 818,
      "RA": 819,
      "amet": 820,
      "ary": 821,
      "Ġ</><*><*><": 822,
      "ĠJ": 823,
      "og": 824,
      "\"<;><": 825,
      "Ġpar": 826,
      "Sy": 827,
      "Ġdistributed": 828,
      "Mockito": 829,
      "tings": 830,
      "ttp": 831,
      "Ġyou": 832,
      "ersion": 833,
      "CT": 834,
      "uration": 835,
      "whois": 836,
      "ner": 837,
      "ream": 838,
      "att": 839,
      "Match": 840,
      "select": 841,
      "ffer": 842,
      "Ġ<->": 843,
      "posit": 844,
      "ument": 845,
      "str": 846,
      "ee": 847,
      "Ġ.": 848,
      "PRECOMBAT": 849,
      "Ġ<=><": 850,
      "path": 851,
      "\"<)>,": 852,
      "cur": 853,
      "pository": 854,
      "Ġit": 855,
      "ana": 856,
      "Result": 857,
      "Get": 858,
      "vid": 859,
      ">.": 860,
      "org": 861,
      "Permanent": 862,
      "stem": 863,
      "Query": 864,
      "ild": 865,
      "Access": 866,
      "Inte": 867,
      "playerB": 868,
      "verr": 869,
      "ial": 870,
      "ong": 871,
      "verride": 872,
      "Integer": 873,
      "Ġnet": 874,
      "Column": 875,
      "\"<)>.": 876,
      "ĠOR": 877,
      "LI": 878,
      "12": 879,
      "build": 880,
      "ens": 881,
      "State": 882,
      "Spell": 883,
      "ive": 884,
      "col": 885,
      "ader": 886,
      "Utils": 887,
      "Ab": 888,
      "<}><{>": 889,
      "Ġbe": 890,
      "Valid": 891,
      "ĠAt": 892,
      "ntity": 893,
      "fr": 894,
      "HAND": 895,
      "Resource": 896,
      "..": 897,
      "cast": 898,
      "are": 899,
      "Stat": 900,
      "Factory": 901,
      "bo": 902,
      "mockito": 903,
      "Un": 904,
      "Message": 905,
      "OR": 906,
      "pec": 907,
      "An": 908,
      "+>": 909,
      "key": 910,
      "ble": 911,
      "Http": 912,
      "ire": 913,
      "Ġmage": 914,
      "fault": 915,
      "castSpell": 916,
      "Job": 917,
      "dex": 918,
      "ge": 919,
      "vent": 920,
      "\\\"<": 921,
      "frame": 922,
      "ends": 923,
      "ient": 924,
      "Configuration": 925,
      "ĠRpslObject": 926,
      "oft": 927,
      "mit": 928,
      "Ġcreature": 929,
      "Data": 930,
      "Run": 931,
      "AL": 932,
      "Ġat": 933,
      "zon": 934,
      "Pl": 935,
      "ach": 936,
      "name": 937,
      "Stop": 938,
      "work": 939,
      "ants": 940,
      "Ġthat": 941,
      "arget": 942,
      "vider": 943,
      "mo": 944,
      "ames": 945,
      "ĠTh": 946,
      "tributeType": 947,
      "const": 948,
      "ine": 949,
      "ations": 950,
      "Ġch": 951,
      "<(>\"</>": 952,
      "extends": 953,
      "IS": 954,
      "iss": 955,
      "tent": 956,
      "Ġcopy": 957,
      "size": 958,
      "contains": 959,
      "token": 960,
      "mpl": 961,
      "avey": 962,
      "aveyard": 963,
      "[><]>": 964,
      "ObjectType": 965,
      "Override": 966,
      "EST": 967,
      "<(><)><)><": 968,
      "rror": 969,
      "redent": 970,
      "PE": 971,
      "><(": 972,
      "PermanentCount": 973,
      "Graph": 974,
      "ĠĠĠĠĠĠ": 975,
      "ties": 976,
      "de": 977,
      "Ġ4": 978,
      "><;><": 979,
      "client": 980,
      "perties": 981,
      "ĠOF": 982,
      "mpty": 983,
      "Date": 984,
      "Stream": 985,
      "write": 986,
      "ID": 987,
      "RO": 988,
      "ix": 989,
      "Ar": 990,
      "Ġset": 991,
      "hape": 992,
      "ĠK": 993,
      "StopAt": 994,
      "setStopAt": 995,
      "field": 996,
      "Ġcard": 997,
      "hen": 998,
      "Store": 999,
      "ence": 1000,
      "ĠY": 1001,
      "ĉĉĠĠĠ": 1002,
      "><)><": 1003,
      "ĠG": 1004,
      "cod": 1005,
      "Authentication": 1006,
      "ange": 1007,
      "OAuth": 1008,
      "Ġli": 1009,
      "lean": 1010,
      "ound": 1011,
      "ilter": 1012,
      "NY": 1013,
      "AM": 1014,
      "Ġpro": 1015,
      "by": 1016,
      "Handler": 1017,
      "And": 1018,
      "Or": 1019,
      "ust": 1020,
      "fo": 1021,
      "peration": 1022,
      "<(><)><)><)><;><": 1023,
      "Paramet": 1024,
      "Add": 1025,
      "ility": 1026,
      "Entity": 1027,
      "low": 1028,
      "10": 1029,
      "ues": 1030,
      "angu": 1031,
      "ĠYou": 1032,
      "jcr": 1033,
      "Ġi": 1034,
      "All": 1035,
      "<(>\"<": 1036,
      "mage": 1037,
      "ave": 1038,
      "ails": 1039,
      "System": 1040,
      "main": 1041,
      "MNT": 1042,
      "ired": 1043,
      "'s": 1044,
      "Int": 1045,
      "Ġcomp": 1046,
      "vers": 1047,
      "cept": 1048,
      "ors": 1049,
      "ans": 1050,
      "ĠIn": 1051,
      "DE": 1052,
      "over": 1053,
      "ĠANY": 1054,
      "ĠCON": 1055,
      "ke": 1056,
      "ref": 1057,
      "Reg": 1058,
      "sed": 1059,
      "ress": 1060,
      "job": 1061,
      "foo": 1062,
      "updateContext": 1063,
      "sing": 1064,
      "Elements": 1065,
      "OException": 1066,
      "umb": 1067,
      "press": 1068,
      "framework": 1069,
      "<)><)>.": 1070,
      "sh": 1071,
      "ouble": 1072,
      "Ġby": 1073,
      "trol": 1074,
      "amlResponse": 1075,
      "Ġres": 1076,
      "Ġhttp": 1077,
      "oolean": 1078,
      "ml": 1079,
      "@><": 1080,
      "row": 1081,
      "User": 1082,
      "<]": 1083,
      "ĠIS": 1084,
      "oin": 1085,
      "getS": 1086,
      "pring": 1087,
      "HO": 1088,
      "iv": 1089,
      "ials": 1090,
      "Ġwr": 1091,
      "author": 1092,
      "base": 1093,
      "yn": 1094,
      "Ġuse": 1095,
      "Json": 1096,
      "RI": 1097,
      "From": 1098,
      "*><*><*><*><*><*><*><*><": 1099,
      "ages": 1100,
      "odel": 1101,
      "Ġob": 1102,
      "Ro": 1103,
      "ill": 1104,
      "gr": 1105,
      "ocal": 1106,
      "AccessToken": 1107,
      "Ġ<(><": 1108,
      "IES": 1109,
      "the": 1110,
      "www": 1111,
      "right": 1112,
      "Exec": 1113,
      "url": 1114,
      "Det": 1115,
      "ov": 1116,
      "PlayerB": 1117,
      "ARRA": 1118,
      "modes": 1119,
      "modeshape": 1120,
      "rent": 1121,
      "eck": 1122,
      "></>": 1123,
      "?>": 1124,
      "KE": 1125,
      "ization": 1126,
      "port": 1127,
      "ĠSee": 1128,
      "ermiss": 1129,
      "less": 1130,
      "has": 1131,
      "Ġact": 1132,
      "pache": 1133,
      "Ġhas": 1134,
      "spring": 1135,
      "PlayerBase": 1136,
      "attle": 1137,
      "ff": 1138,
      "Ġexpected": 1139,
      "irst": 1140,
      "ING": 1141,
      "ĠApache": 1142,
      "Credent": 1143,
      "ther": 1144,
      "toString": 1145,
      "ham": 1146,
      "Ġspec": 1147,
      "HE": 1148,
      "</><*><": 1149,
      "springframework": 1150,
      "ilver": 1151,
      "ĠAS": 1152,
      "TestPlayerBase": 1153,
      "lied": 1154,
      "ert": 1155,
      "ĠWARRA": 1156,
      "ĠWARRANT": 1157,
      "fter": 1158,
      "ĠRe": 1159,
      "No": 1160,
      "lock": 1161,
      "ubbo": 1162,
      "ĠWARRANTIES": 1163,
      "request": 1164,
      "any": 1165,
      "ware": 1166,
      "anne": 1167,
      "ither": 1168,
      "pes": 1169,
      "aws": 1170,
      "annel": 1171,
      "Graveyard": 1172,
      "coat": 1173,
      "ilvercoat": 1174,
      "crest": 1175,
      "hamcrest": 1176,
      "Ġ5": 1177,
      "ĠUn": 1178,
      "Event": 1179,
      "anguage": 1180,
      "ces": 1181,
      "pv": 1182,
      "Ġgr": 1183,
      "Ġpermiss": 1184,
      "IND": 1185,
      "ample": 1186,
      "Status": 1187,
      "attlefield": 1188,
      "umber": 1189,
      "%>": 1190,
      "eb": 1191,
      "Ġ<@><": 1192,
      "Encod": 1193,
      "ctor": 1194,
      "></><*><*><": 1195,
      "Attribute": 1196,
      "oftware": 1197,
      "cri": 1198,
      "ĠVersion": 1199,
      "mnt": 1200,
      "ITION": 1201,
      "quired": 1202,
      "ĠArray": 1203,
      "loc": 1204,
      "Ġlimit": 1205,
      "ama": 1206,
      "cope": 1207,
      "ord": 1208,
      "ĠLion": 1209,
      "GraveyardCount": 1210,
      "Names": 1211,
      "ols": 1212,
      "serv": 1213,
      "Ġfrom": 1214,
      "Execut": 1215,
      "api": 1216,
      "Ġimp": 1217,
      "num": 1218,
      "Matchers": 1219,
      "oup": 1220,
      "Ġexcept": 1221,
      "lections": 1222,
      "amazon": 1223,
      "Error": 1224,
      "Ġag": 1225,
      "Ġmock": 1226,
      "Ġ'": 1227,
      "Details": 1228,
      "pace": 1229,
      "Log": 1230,
      "ĠBAS": 1231,
      "LO": 1232,
      "Silvercoat": 1233,
      "applic": 1234,
      "DITION": 1235,
      "with": 1236,
      "ITHO": 1237,
      "ITHOUT": 1238,
      "ĠAttributeType": 1239,
      "ga": 1240,
      "Ġeither": 1241,
      "Provider": 1242,
      "essages": 1243,
      "ĠIOException": 1244,
      "Server": 1245,
      "ink": 1246,
      "Ġlanguage": 1247,
      "Ġpermissions": 1248,
      "License": 1249,
      "liance": 1250,
      "Host": 1251,
      "lection": 1252,
      "Update": 1253,
      "ĠKIND": 1254,
      "Ġexpress": 1255,
      "ĠWITHOUT": 1256,
      "Ġcompliance": 1257,
      "Ġlimitations": 1258,
      "DITIONS": 1259,
      "card": 1260,
      "ĠLicen": 1261,
      "Ġgover": 1262,
      "ĠCONDITIONS": 1263,
      "Ġimplied": 1264,
      "ĠBASIS": 1265,
      "ĠLicensed": 1266,
      "Ġgoverning": 1267,
      "ypes": 1268,
      "Code": 1269,
      "gov": 1270,
      "Ġauth": 1271,
      "Ref": 1272,
      "ager": 1273,
      "gch": 1274,
      "gchq": 1275,
      "node": 1276,
      "instance": 1277,
      "Ġbattlefield": 1278,
      "alTo": 1279,
      "\"<)><;>": 1280,
      "Ġ\"</>": 1281,
      "34": 1282,
      "Sign": 1283,
      "Al": 1284,
      "enses": 1285,
      "eng": 1286,
      "licenses": 1287,
      "oauth": 1288,
      ")>,": 1289,
      "word": 1290,
      "Method": 1291,
      "arr": 1292,
      "equ": 1293,
      "err": 1294,
      "Po": 1295,
      "Ġagre": 1296,
      "Info": 1297,
      "Ġuk": 1298,
      "ference": 1299,
      "ace": 1300,
      "uffer": 1301,
      "ome": 1302,
      "dubbo": 1303,
      "net": 1304,
      "mat": 1305,
      "validate": 1306,
      "selector": 1307,
      "Arg": 1308,
      "EG": 1309,
      "gaffer": 1310,
      "notation": 1311,
      "eder": 1312,
      "Ġsubject": 1313,
      "<)><;>": 1314,
      "Properties": 1315,
      "chema": 1316,
      "apt": 1317,
      "Table": 1318,
      "mplate": 1319,
      "--><--><--><--><--><--><--><--><--><--><--><--><--><--><--><--><": 1320,
      "\\\"<:>": 1321,
      "Local": 1322,
      "URL": 1323,
      "ĠWhen": 1324,
      "imple": 1325,
      "omain": 1326,
      "LECT": 1327,
      "data": 1328,
      "anager": 1329,
      "move": 1330,
      "Comp": 1331,
      "secur": 1332,
      "security": 1333,
      "Ġwrit": 1334,
      "Te": 1335,
      "Ġsoftware": 1336,
      "ln": 1337,
      "file": 1338,
      "Ġ<:>": 1339,
      "find": 1340,
      "Wr": 1341,
      "ax": 1342,
      "On": 1343,
      "OT": 1344,
      "cond": 1345,
      "Version": 1346,
      "ĠObject": 1347,
      "reg": 1348,
      "Ġrequest": 1349,
      "lan": 1350,
      "SS": 1351,
      "Ġtarget": 1352,
      "older": 1353,
      "Ability": 1354,
      "\"<)><)><)><;><": 1355,
      "Su": 1356,
      "ask": 1357,
      "resh": 1358,
      "Messages": 1359,
      "byte": 1360,
      "Ġadd": 1361,
      "ĠSet": 1362,
      "run": 1363,
      "irect": 1364,
      "Ġcol": 1365,
      "arch": 1366,
      "Ġapplic": 1367,
      "Ġrequired": 1368,
      "Ġcontrol": 1369,
      "stract": 1370,
      "arding": 1371,
      "Ġde": 1372,
      "Met": 1373,
      "ength": 1374,
      "ao": 1375,
      "|>": 1376,
      "ere": 1377,
      "Ġany": 1378,
      "Ġobtain": 1379,
      "comp": 1380,
      "==><": 1381,
      "rools": 1382,
      "Parameter": 1383,
      "Ġmethod": 1384,
      "Ġtoken": 1385,
      "amazonaws": 1386,
      "Manager": 1387,
      "ederated": 1388,
      "ĠCh": 1389,
      "AME": 1390,
      "Ġplayer": 1391,
      "Instance": 1392,
      "NSE": 1393,
      "Ġnode": 1394,
      "CENSE": 1395,
      "PO": 1396,
      "Unit": 1397,
      "Ġ10": 1398,
      "Root": 1399,
      "LICENSE": 1400,
      "Ġapplicable": 1401,
      "iew": 1402,
      "next": 1403,
      "Ġwriting": 1404,
      "br": 1405,
      "<)><)><)><;><": 1406,
      "Ġ20": 1407,
      "Credentials": 1408,
      "ĠUnless": 1409,
      "RpslObject": 1410,
      "Ġlaw": 1411,
      "Ġagreed": 1412,
      "GE": 1413,
      "BEG": 1414,
      "dang": 1415,
      "Ġ<[>": 1416,
      "64": 1417,
      "ule": 1418,
      "putStream": 1419,
      "ĠCopy": 1420,
      "><(><)><;><": 1421,
      "IG": 1422,
      "Ġ\\\"": 1423,
      "Ġinstance": 1424,
      "Hash": 1425,
      "Mana": 1426,
      "ates": 1427,
      "Repository": 1428,
      "<(><)>,<": 1429,
      "ĠList": 1430,
      "BEGIN": 1431,
      "Doc": 1432,
      "ac": 1433,
      "Ġcreate": 1434,
      "nal": 1435,
      "tected": 1436,
      "201": 1437,
      "Inter": 1438,
      "Ġcount": 1439,
      "inal": 1440,
      "Ġen": 1441,
      "Option": 1442,
      "source": 1443,
      "ĠCopyright": 1444,
      "gh": 1445,
      "Thread": 1446,
      "&>": 1447,
      "20": 1448,
      "Empty": 1449,
      "><(>": 1450,
      "25": 1451,
      "Address": 1452,
      "Index": 1453,
      "bar": 1454,
      "Ġvalue": 1455,
      "Size": 1456,
      "Types": 1457,
      "Ur": 1458,
      "host": 1459,
      "Ġv": 1460,
      "ual": 1461,
      "Argument": 1462,
      "NotNull": 1463,
      "leg": 1464,
      "Fail": 1465,
      "cation": 1466,
      "UE": 1467,
      "ower": 1468,
      "ities": 1469,
      "==><==><": 1470,
      "Ġval": 1471,
      "getName": 1472,
      "own": 1473,
      "><[><]>": 1474,
      "oice": 1475,
      "Ġmana": 1476,
      "NAME": 1477,
      "Ġas": 1478,
      "Child": 1479,
      "ĠCard": 1480,
      "Ġ201": 1481,
      "...": 1482,
      "Domain": 1483,
      "inc": 1484,
      "200": 1485,
      "<[><]>": 1486,
      "sum": 1487,
      "ĠĠĠĠĠ": 1488,
      "ved": 1489,
      "catch": 1490,
      "Content": 1491,
      "Iter": 1492,
      "inary": 1493,
      "ynam": 1494,
      "Source": 1495,
      "ree": 1496,
      "Ext": 1497,
      "ĠPro": 1498,
      "Ġse": 1499,
      "ains": 1500,
      "upport": 1501,
      "Default": 1502,
      "Template": 1503,
      "Ap": 1504,
      "11": 1505,
      "start": 1506,
      "pl": 1507,
      "ks": 1508,
      "vocation": 1509,
      "19": 1510,
      "orization": 1511,
      "saml": 1512,
      "ams": 1513,
      "ĠAs": 1514,
      "ices": 1515,
      "Ġ<{><}><": 1516,
      "local": 1517,
      "Ġclient": 1518,
      "ments": 1519,
      "Plan": 1520,
      "Filter": 1521,
      "End": 1522,
      "eq": 1523,
      "type": 1524,
      "load": 1525,
      "current": 1526,
      "ank": 1527,
      "Buffer": 1528,
      "Lo": 1529,
      "protected": 1530,
      "Hel": 1531,
      "UM": 1532,
      "io": 1533,
      "Action": 1534,
      "cert": 1535,
      "ough": 1536,
      "orage": 1537,
      "ĠCol": 1538,
      "double": 1539,
      "user": 1540,
      "Ġcast": 1541,
      "column": 1542,
      ">,<": 1543,
      "ĠHash": 1544,
      "'t": 1545,
      "Out": 1546,
      "Ġyour": 1547,
      "ĠDe": 1548,
      "adata": 1549,
      "Field": 1550,
      "raw": 1551,
      "escri": 1552,
      "settings": 1553,
      "Base": 1554,
      "Ġsession": 1555,
      "be": 1556,
      "ateg": 1557,
      "Ġpath": 1558,
      "RunWith": 1559,
      "After": 1560,
      "Ġequ": 1561,
      "ĠUtil": 1562,
      "IC": 1563,
      "iteral": 1564,
      "Ġconfig": 1565,
      "000": 1566,
      "TEST": 1567,
      "ker": 1568,
      "ms": 1569,
      "SELECT": 1570,
      "Ġurl": 1571,
      "Ġ\"<{>": 1572,
      "TY": 1573,
      "Ġab": 1574,
      "use": 1575,
      "wn": 1576,
      "store": 1577,
      "ind": 1578,
      "land": 1579,
      "Encoded": 1580,
      "tract": 1581,
      "context": 1582,
      "><)>,": 1583,
      "AC": 1584,
      "Group": 1585,
      "json": 1586,
      "ss": 1587,
      "ountain": 1588,
      "amage": 1589,
      "Reference": 1590,
      "\"<)><)><": 1591,
      "Com": 1592,
      "assword": 1593,
      "su": 1594,
      "ĠĠĠĠĠĠĠ": 1595,
      "getValue": 1596,
      "Parser": 1597,
      "servers": 1598,
      "Ġcontains": 1599,
      "\\\",": 1600,
      "cards": 1601,
      "ENT": 1602,
      "refix": 1603,
      "getBy": 1604,
      "vert": 1605,
      "leton": 1606,
      "dated": 1607,
      "imes": 1608,
      "Ġresponse": 1609,
      "itor": 1610,
      "pression": 1611,
      "ĠupdateContext": 1612,
      "map": 1613,
      "xy": 1614,
      "Ġte": 1615,
      "Ġturn": 1616,
      "ĠLI": 1617,
      "ET": 1618,
      "ĠAdd": 1619,
      "80": 1620,
      "long": 1621,
      "He": 1622,
      "Mountain": 1623,
      "Sh": 1624,
      "my": 1625,
      "Ġop": 1626,
      "Gener": 1627,
      "Select": 1628,
      "ait": 1629,
      "liver": 1630,
      "Ġent": 1631,
      "Ġ<?>": 1632,
      "Document": 1633,
      "Dao": 1634,
      "table": 1635,
      "Red": 1636,
      "ature": 1637,
      "login": 1638,
      "model": 1639,
      "ension": 1640,
      "ra": 1641,
      "boolean": 1642,
      "Ġcl": 1643,
      "Conne": 1644,
      "Ġparser": 1645,
      "vel": 1646,
      "ĠOAuth": 1647,
      "olt": 1648,
      "reshToken": 1649,
      "elet": 1650,
      "Sec": 1651,
      "Url": 1652,
      "ep": 1653,
      "Ġtype": 1654,
      "logout": 1655,
      "object": 1656,
      "legal": 1657,
      "IL": 1658,
      "equals": 1659,
      "serverside": 1660,
      "Session": 1661,
      "ArrayList": 1662,
      "length": 1663,
      "PRO": 1664,
      "ier": 1665,
      "xml": 1666,
      "Listener": 1667,
      "Parse": 1668,
      "inet": 1669,
      "AB": 1670,
      "wo": 1671,
      "}>,": 1672,
      "Number": 1673,
      "<+": 1674,
      "ivate": 1675,
      "END": 1676,
      "Holder": 1677,
      "PhaseStep": 1678,
      "Servlet": 1679,
      ".$": 1680,
      "incip": 1681,
      "ROM": 1682,
      "==>": 1683,
      "Trans": 1684,
      "SON": 1685,
      "ITY": 1686,
      "POST": 1687,
      "If": 1688,
      "ĠAuth": 1689,
      "Options": 1690,
      "Ġ<...": 1691,
      "DB": 1692,
      "from": 1693,
      "check": 1694,
      "Ġits": 1695,
      "Ġall": 1696,
      "Collections": 1697,
      "Settings": 1698,
      "ightning": 1699,
      "CON": 1700,
      "ĠIpv": 1701,
      "OW": 1702,
      "back": 1703,
      "llegal": 1704,
      "itial": 1705,
      "0000": 1706,
      "session": 1707,
      "Ġno": 1708,
      "ized": 1709,
      "ĠTests": 1710,
      "Execution": 1711,
      "mar": 1712,
      "Success": 1713,
      "core": 1714,
      "rincip": 1715,
      "Ġname": 1716,
      "singleton": 1717,
      "ql": 1718,
      "time": 1719,
      "Defin": 1720,
      "psoft": 1721,
      "ocpsoft": 1722,
      "evel": 1723,
      "java": 1724,
      "ric": 1725,
      "CardTestPlayerBase": 1726,
      "attack": 1727,
      "ĠCardTestPlayerBase": 1728,
      "Ġhave": 1729,
      "Values": 1730,
      "LOC": 1731,
      "ph": 1732,
      "ĠAND": 1733,
      "Plains": 1734,
      "Scope": 1735,
      "Ġtr": 1736,
      "Choice": 1737,
      "append": 1738,
      "mazon": 1739,
      "parser": 1740,
      "enc": 1741,
      "asic": 1742,
      "ĠFROM": 1743,
      "Uri": 1744,
      "response": 1745,
      "error": 1746,
      "server": 1747,
      "Ġ<...><": 1748,
      "Operation": 1749,
      "Expression": 1750,
      "iginal": 1751,
      "SER": 1752,
      "ĠCon": 1753,
      "ĠTEST": 1754,
      "join": 1755,
      "Ġend": 1756,
      "uto": 1757,
      "Bean": 1758,
      "ĠMock": 1759,
      "Ġhand": 1760,
      "Ġfail": 1761,
      "ied": 1762,
      "Ġ<==>": 1763,
      "remove": 1764,
      "*><*><*><*><*><*><*><*><*><*><*><*><*><*><*><*><": 1765,
      "mand": 1766,
      "CO": 1767,
      "default": 1768,
      "MP": 1769,
      "Next": 1770,
      "Ġkey": 1771,
      "tes": 1772,
      "Lightning": 1773,
      "16": 1774,
      "root": 1775,
      "Ġcolumn": 1776,
      "_<": 1777,
      "NUM": 1778,
      "ATION": 1779,
      "ĠX": 1780,
      "Ġone": 1781,
      "ures": 1782,
      "ĠBolt": 1783,
      "ĠUp": 1784,
      "ister": 1785,
      "Part": 1786,
      "JUnit": 1787,
      "Web": 1788,
      "child": 1789,
      "32": 1790,
      "element": 1791,
      "<)><)><": 1792,
      "<}><:>": 1793,
      "Same": 1794,
      "ponent": 1795,
      "dge": 1796,
      "Ġup": 1797,
      "lear": 1798,
      "ilities": 1799,
      "oud": 1800,
      "InputStream": 1801,
      "Ġ6": 1802,
      "Ġ<-><": 1803,
      "getC": 1804,
      "getId": 1805,
      "ĠsamlResponse": 1806,
      "unction": 1807,
      "version": 1808,
      "Ġvalues": 1809,
      "CL": 1810,
      "Long": 1811,
      "ise": 1812,
      "ness": 1813,
      "Ġuser": 1814,
      "Runner": 1815,
      "chant": 1816,
      "RefreshToken": 1817,
      "RS": 1818,
      "Ġdamage": 1819,
      "ALUE": 1820,
      "Parameters": 1821,
      "56": 1822,
      "ipv": 1823,
      "property": 1824,
      "min": 1825,
      "sw": 1826,
      "ystem": 1827,
      "rincipal": 1828,
      "09": 1829,
      "Byte": 1830,
      "sign": 1831,
      "Loader": 1832,
      "Definition": 1833,
      "mail": 1834,
      "throw": 1835,
      "When": 1836,
      "other": 1837,
      "Storage": 1838,
      "ĠAssert": 1839,
      "ret": 1840,
      "AsString": 1841,
      "Ġobject": 1842,
      "Ġare": 1843,
      "sumer": 1844,
      "99": 1845,
      "index": 1846,
      "ultip": 1847,
      "Arrays": 1848,
      "array": 1849,
      "Ġcan": 1850,
      "ĠQuery": 1851,
      "ari": 1852,
      "Mapp": 1853,
      "service": 1854,
      "iven": 1855,
      "os": 1856,
      "ĠUpdate": 1857,
      "Ne": 1858,
      "ODE": 1859,
      "asList": 1860,
      "action": 1861,
      "Ġx": 1862,
      "KEY": 1863,
      "18": 1864,
      "Ipv": 1865,
      "mm": 1866,
      "Channel": 1867,
      "ci": 1868,
      "ĠIN": 1869,
      "Power": 1870,
      "hand": 1871,
      "><:>": 1872,
      "Range": 1873,
      "du": 1874,
      "Helper": 1875,
      "Ġtable": 1876,
      "oughness": 1877,
      "Ite": 1878,
      "list": 1879,
      "UL": 1880,
      "oute": 1881,
      "activate": 1882,
      "PER": 1883,
      "rewrite": 1884,
      "24": 1885,
      "Pri": 1886,
      "Row": 1887,
      "VALUE": 1888,
      "getType": 1889,
      "PlanNode": 1890,
      "RL": 1891,
      "ĠEn": 1892,
      "ustom": 1893,
      "liveramp": 1894,
      "%><": 1895,
      "access": 1896,
      "POSTCOMBAT": 1897,
      "ultiple": 1898,
      "ATED": 1899,
      "\"<)><)>,": 1900,
      "Imp": 1901,
      "Simple": 1902,
      "AttributeType": 1903,
      "Ġput": 1904,
      "example": 1905,
      "ĠPar": 1906,
      "Sc": 1907,
      "Ġspell": 1908,
      "Failure": 1909,
      "datedObject": 1910,
      "23": 1911,
      "gle": 1912,
      "hank": 1913,
      "pted": 1914,
      "ĠtestGet": 1915,
      "ting": 1916,
      "ug": 1917,
      "Ġtimes": 1918,
      "ative": 1919,
      "urrent": 1920,
      "setChoice": 1921,
      "Extension": 1922,
      "Oper": 1923,
      "VE": 1924,
      "drools": 1925,
      "Ġselector": 1926,
      "><@>": 1927,
      "Ġjavax": 1928,
      "apped": 1929,
      "licy": 1930,
      "Parent": 1931,
      "TA": 1932,
      "Island": 1933,
      "AUT": 1934,
      "dition": 1935,
      "oogle": 1936,
      "Check": 1937,
      "MockitoJUnit": 1938,
      "MockitoJUnitRunner": 1939,
      "ĠAr": 1940,
      "[><]": 1941,
      "TE": 1942,
      "TR": 1943,
      "pect": 1944,
      "mntner": 1945,
      "Dec": 1946,
      "Target": 1947,
      "parent": 1948,
      "ĠequalTo": 1949,
      "GRA": 1950,
      "Prefix": 1951,
      "ia": 1952,
      "Annotation": 1953,
      "entity": 1954,
      "<++": 1955,
      "repository": 1956,
      "ĠhasSize": 1957,
      "ĠCollections": 1958,
      "llegalArgument": 1959,
      "Game": 1960,
      "llegalArgumentException": 1961,
      "fail": 1962,
      "setProperty": 1963,
      "status": 1964,
      "tern": 1965,
      "22": 1966,
      "<}><;><": 1967,
      "Sw": 1968,
      "ched": 1969,
      "ĠAb": 1970,
      "pir": 1971,
      "Ġ\"\\\"": 1972,
      "ft": 1973,
      "input": 1974,
      "\\\\": 1975,
      "Ġquery": 1976,
      "ATH": 1977,
      "Ġreg": 1978,
      "UTE": 1979,
      "><(><)>": 1980,
      "FA": 1981,
      "First": 1982,
      "Act": 1983,
      "lite": 1984,
      "Boolean": 1985,
      "Dynam": 1986,
      "Mapper": 1987,
      "operation": 1988,
      "selection": 1989,
      "ever": 1990,
      "Authorization": 1991,
      "ake": 1992,
      "ĠAn": 1993,
      "ĠUser": 1994,
      "ĠSettings": 1995,
      "ITRE": 1996,
      "google": 1997,
      "Allow": 1998,
      "><(><": 1999,
      "utable": 2000,
      "resource": 2001,
      "Ġcontent": 2002,
      "ĠĠĠĠĠĠĠĠĠĠĠĠĠĠĠĠ": 2003,
      ">_": 2004,
      "<(>\"\"": 2005,
      "Create": 2006,
      "authentication": 2007,
      "loy": 2008,
      "az": 2009,
      "ars": 2010,
      "78": 2011,
      "More": 2012,
      "no": 2013,
      "Ġ<!": 2014,
      "apper": 2015,
      "Ġsource": 2016,
      "\"<)>,<": 2017,
      "Mon": 2018,
      "\"<)><)>.": 2019,
      "ategy": 2020,
      "ables": 2021,
      "Ġcost": 2022,
      "ClientDetails": 2023,
      "Redirect": 2024,
      "elete": 2025,
      "ose": 2026,
      "Ġstr": 2027,
      "ren": 2028,
      "Ġ<}>": 2029,
      "atab": 2030,
      "iom": 2031,
      "ĠTo": 2032,
      "NS": 2033,
      "Ġgraveyard": 2034,
      "IGN": 2035,
      "Ġstart": 2036,
      "count": 2037,
      "graph": 2038,
      "ĠSt": 2039,
      "getProperty": 2040,
      "ĠThe": 2041,
      "iles": 2042,
      "Ġaction": 2043,
      "ingle": 2044,
      "Case": 2045,
      "Down": 2046,
      "EqualTo": 2047,
      "where": 2048,
      "Partition": 2049,
      "oDB": 2050,
      "ĠEx": 2051,
      "Than": 2052,
      "ĠsetUp": 2053,
      "Regis": 2054,
      "Ġother": 2055,
      "ĠPlan": 2056,
      "Seg": 2057,
      "ĠGet": 2058,
      "Ag": 2059,
      "Cache": 2060,
      "erson": 2061,
      "ordin": 2062,
      "met": 2063,
      "DateTime": 2064,
      "code": 2065,
      "ĉĉĠĠ": 2066,
      "ffect": 2067,
      "Site": 2068,
      "Toughness": 2069,
      "provider": 2070,
      "NodeType": 2071,
      "OUR": 2072,
      "rpsl": 2073,
      "idData": 2074,
      "Ġrepository": 2075,
      "ITREidData": 2076,
      "ITREidDataService": 2077,
      "Sub": 2078,
      "Throw": 2079,
      "Ġactual": 2080,
      "ordinator": 2081,
      "ameters": 2082,
      "Swamp": 2083,
      "mb": 2084,
      "OURCE": 2085,
      "ySuccess": 2086,
      "ĠshouldNot": 2087,
      "edge": 2088,
      "state": 2089,
      "OO": 2090,
      "izer": 2091,
      "<]>,": 2092,
      "ĠElement": 2093,
      "TO": 2094,
      "Text": 2095,
      "rapi": 2096,
      "ĠIf": 2097,
      "Ġcards": 2098,
      "AD": 2099,
      "agr": 2100,
      "igger": 2101,
      "Validator": 2102,
      "activateAbility": 2103,
      "getClass": 2104,
      "reature": 2105,
      "mmutable": 2106,
      "ATE": 2107,
      "Ġopponent": 2108,
      "Task": 2109,
      "aim": 2110,
      "fl": 2111,
      "sWith": 2112,
      "ĠDefault": 2113,
      "some": 2114,
      "annotation": 2115,
      "onelogin": 2116,
      "HttpServlet": 2117,
      "Ġgraph": 2118,
      "localhost": 2119,
      "atabase": 2120,
      "<(><(>": 2121,
      "ClientId": 2122,
      "logger": 2123,
      "Ax": 2124,
      "ĠWHE": 2125,
      "ĠPlanNode": 2126,
      "Schema": 2127,
      "gener": 2128,
      "getL": 2129,
      ">.<": 2130,
      "fn": 2131,
      "js": 2132,
      "attern": 2133,
      "1234": 2134,
      "WS": 2135,
      "ade": 2136,
      "Start": 2137,
      "INET": 2138,
      "Ġdrools": 2139,
      "ĠURL": 2140,
      "13": 2141,
      "Reader": 2142,
      "Chain": 2143,
      "Ġstate": 2144,
      "match": 2145,
      "Writer": 2146,
      "Ad": 2147,
      "Color": 2148,
      "Actor": 2149,
      "bit": 2150,
      "filter": 2151,
      "iled": 2152,
      "Wh": 2153,
      "Ġcounter": 2154,
      "Command": 2155,
      "ead": 2156,
      "ddframe": 2157,
      "brid": 2158,
      "dangdang": 2159,
      "ron": 2160,
      "Ġal": 2161,
      "Validation": 2162,
      "Ma": 2163,
      "gin": 2164,
      "itle": 2165,
      "ĠArrayList": 2166,
      "Import": 2167,
      "ML": 2168,
      "Ġ$": 2169,
      "Constr": 2170,
      "ĠSystem": 2171,
      "Dep": 2172,
      "Order": 2173,
      "Logger": 2174,
      "inetnum": 2175,
      "Impl": 2176,
      "air": 2177,
      "olog": 2178,
      "ĠAbstract": 2179,
      "ĠInteger": 2180,
      "Dis": 2181,
      "ense": 2182,
      "arn": 2183,
      "properties": 2184,
      "Should": 2185,
      "Ġ7": 2186,
      "Strategy": 2187,
      "Process": 2188,
      "aller": 2189,
      "Format": 2190,
      "PowerToughness": 2191,
      "Ġwhen": 2192,
      "Exist": 2193,
      "Ġnodes": 2194,
      "Ġempty": 2195,
      "Services": 2196,
      "Namespace": 2197,
      "Nodes": 2198,
      "__": 2199,
      "Ġk": 2200,
      "orm": 2201,
      "oups": 2202,
      "content": 2203,
      "ĠBy": 2204,
      "Ġeach": 2205,
      "*>": 2206,
      "Join": 2207,
      "SIGN": 2208,
      "ĠIllegalArgumentException": 2209,
      "cry": 2210,
      "TUR": 2211,
      "support": 2212,
      "ĠMap": 2213,
      "UID": 2214,
      "orre": 2215,
      "iterator": 2216,
      "TYPE": 2217,
      "Model": 2218,
      "Connection": 2219,
      "tps": 2220,
      "Abstract": 2221,
      "RIPE": 2222,
      "Iterator": 2223,
      "TURN": 2224,
      "Player": 2225,
      "<(><->": 2226,
      "actors": 2227,
      "<)>,<": 2228,
      "33": 2229,
      "Each": 2230,
      "trans": 2231,
      "100": 2232,
      "<:><:": 2233,
      "valueOf": 2234,
      "uf": 2235,
      "ĠCl": 2236,
      "Ring": 2237,
      "char": 2238,
      "actions": 2239,
      "used": 2240,
      "allback": 2241,
      "Region": 2242,
      "plic": 2243,
      "itions": 2244,
      "Invalid": 2245,
      "ĠNOT": 2246,
      "Mapping": 2247,
      "Spec": 2248,
      "message": 2249,
      "Control": 2250,
      "Ġcontext": 2251,
      "ĠrpslObject": 2252,
      "Ġ<!=>": 2253,
      "Ġupdate": 2254,
      "ĠInc": 2255,
      "==><==><==><==><": 2256,
      "Line": 2257,
      "ak": 2258,
      "ous": 2259,
      "omic": 2260,
      "concurrent": 2261,
      "Ġchild": 2262,
      "ns": 2263,
      "sc": 2264,
      "UP": 2265,
      "gn": 2266,
      "getUp": 2267,
      "\\\"<:>\\\"": 2268,
      "sub": 2269,
      "orbit": 2270,
      "getStatus": 2271,
      "river": 2272,
      "ĠDate": 2273,
      "STR": 2274,
      "yFailure": 2275,
      "ĠsamlResponseEncoded": 2276,
      "Bl": 2277,
      "swer": 2278,
      "Java": 2279,
      "VER": 2280,
      "Ġtime": 2281,
      "conne": 2282,
      "Non": 2283,
      "pResult": 2284,
      "lements": 2285,
      "Executor": 2286,
      "ĠHashMap": 2287,
      "escription": 2288,
      "dec": 2289,
      "ĠLong": 2290,
      "Ġresults": 2291,
      "rpslObject": 2292,
      "ses": 2293,
      "clu": 2294,
      "ĠLog": 2295,
      "Interactions": 2296,
      "NER": 2297,
      "ybrid": 2298,
      "Ġmessage": 2299,
      "runner": 2300,
      "orrect": 2301,
      "esc": 2302,
      "aster": 2303,
      "license": 2304,
      "Groups": 2305,
      "ĠDE": 2306,
      "Ġenters": 2307,
      "<(><(><": 2308,
      "pslAttribute": 2309,
      "itional": 2310,
      "ĠLevel": 2311,
      "HandCount": 2312,
      "Mach": 2313,
      "mary": 2314,
      "Ġ#": 2315,
      "ish": 2316,
      "Ġcloud": 2317,
      "apping": 2318,
      "ORG": 2319,
      "ĠByte": 2320,
      "eader": 2321,
      "getP": 2322,
      "see": 2323,
      "ĠAttribute": 2324,
      "Metadata": 2325,
      "255": 2326,
      "agraph": 2327,
      "Ġle": 2328,
      "ero": 2329,
      "stream": 2330,
      "addTarget": 2331,
      "string": 2332,
      "brary": 2333,
      "ology": 2334,
      "save": 2335,
      ".<*><": 2336,
      "abc": 2337,
      "Ġac": 2338,
      "<}>,": 2339,
      "impl": 2340,
      "Ġparent": 2341,
      "><)>.": 2342,
      "repa": 2343,
      "Ġ19": 2344,
      "Ġwor": 2345,
      "234": 2346,
      "Ġid": 2347,
      "ĠLevelX": 2348,
      "Ġ</><": 2349,
      "getFile": 2350,
      "https": 2351,
      "param": 2352,
      "getUpdatedObject": 2353,
      "Machine": 2354,
      "Ac": 2355,
      "Double": 2356,
      "illi": 2357,
      "channel": 2358,
      "abilities": 2359,
      "Block": 2360,
      "Fl": 2361,
      "title": 2362,
      "Ġfirst": 2363,
      "super": 2364,
      "AN": 2365,
      "Rule": 2366,
      "Ġoriginal": 2367,
      "Binary": 2368,
      "pc": 2369,
      "stants": 2370,
      "Ġmore": 2371,
      "ĠFile": 2372,
      "Timeout": 2373,
      "Ġcheck": 2374,
      "ender": 2375,
      "ĠInt": 2376,
      "Ġconvert": 2377,
      "Ids": 2378,
      "Wor": 2379,
      "samlResponse": 2380,
      "ook": 2381,
      "mote": 2382,
      "<:><:></>": 2383,
      "EX": 2384,
      "isValid": 2385,
      "ĠcontainsString": 2386,
      "AA": 2387,
      "JSON": 2388,
      "led": 2389,
      "getMessage": 2390,
      "The": 2391,
      "Ġwas": 2392,
      "ĠHashSet": 2393,
      "clear": 2394,
      "Inject": 2395,
      "><)><)><": 2396,
      "last": 2397,
      "<(>\"<{>": 2398,
      "invo": 2399,
      "aved": 2400,
      "ello": 2401,
      "Ġland": 2402,
      "Forest": 2403,
      "<}>\",": 2404,
      "ru": 2405,
      "--><--><->": 2406,
      "Ġnon": 2407,
      "Item": 2408,
      "TH": 2409,
      "ics": 2410,
      "ĠAmazon": 2411,
      "ĠshouldParse": 2412,
      "ĉĉĉĉ": 2413,
      "Endpo": 2414,
      "CRE": 2415,
      "Ġne": 2416,
      "ernal": 2417,
      "getAll": 2418,
      "Contain": 2419,
      "Appro": 2420,
      "~><": 2421,
      "DI": 2422,
      "SOURCE": 2423,
      "federated": 2424,
      "AST": 2425,
      "ĠWhenever": 2426,
      "Operand": 2427,
      "loyment": 2428,
      "ause": 2429,
      ".<*><;><": 2430,
      "QU": 2431,
      "ĠEntity": 2432,
      "ĠError": 2433,
      "<(><)><)>": 2434,
      "person": 2435,
      "Serial": 2436,
      "que": 2437,
      "addMessage": 2438,
      "<}><)><;><": 2439,
      "ĠThen": 2440,
      "getFileAsString": 2441,
      "Initial": 2442,
      "Ġstore": 2443,
      "Ġobj": 2444,
      "Literal": 2445,
      "getReference": 2446,
      "Lists": 2447,
      "--><--><--><--><--><--><--><--><--><--><--><--><--><--><--><--><--><--><--><--><--><--><--><--><--><--><--><--><--><--><--><--><": 2448,
      "ĠWHERE": 2449,
      "~><~><": 2450,
      "Lock": 2451,
      "stant": 2452,
      "Condition": 2453,
      "BY": 2454,
      "isEmpty": 2455,
      "AML": 2456,
      "Credential": 2457,
      "Selector": 2458,
      "Subject": 2459,
      "</><+>": 2460,
      "acr": 2461,
      "ical": 2462,
      "getInstance": 2463,
      "Single": 2464,
      "Ġlist": 2465,
      "ARY": 2466,
      "ian": 2467,
      "ĠMatch": 2468,
      "Driver": 2469,
      "Function": 2470,
      ".</>": 2471,
      "Extract": 2472,
      "SET": 2473,
      "Results": 2474,
      "Logout": 2475,
      "escript": 2476,
      ">\\": 2477,
      "same": 2478,
      "ted": 2479,
      "Ġ\"\\": 2480,
      "loat": 2481,
      "ible": 2482,
      "Ġcreatures": 2483,
      "Capt": 2484,
      "Ġ8": 2485,
      "ĠSh": 2486,
      "Edge": 2487,
      "ICE": 2488,
      "Principal": 2489,
      "ĠAll": 2490,
      "Ġdata": 2491,
      "ĠTHE": 2492,
      "XML": 2493,
      "><[>": 2494,
      "enter": 2495,
      "Ġpermanent": 2496,
      "Invocation": 2497,
      "opes": 2498,
      "ĠJob": 2499,
      "Org": 2500,
      "Alg": 2501,
      "Stage": 2502,
      "ĠSe": 2503,
      "Ġaccess": 2504,
      "tokens": 2505,
      "TAIN": 2506,
      "Sup": 2507,
      "ry": 2508,
      "Ġsh": 2509,
      "ĠLIKE": 2510,
      "yle": 2511,
      "NodeStorage": 2512,
      "Ġexception": 2513,
      "ĠRpslAttribute": 2514,
      "Keys": 2515,
      "ĠNo": 2516,
      "TER": 2517,
      "ECT": 2518,
      "incol": 2519,
      "Consumer": 2520,
      "STRING": 2521,
      "incoln": 2522,
      "<=>\\\"": 2523,
      "face": 2524,
      "HttpRequest": 2525,
      "Link": 2526,
      "ĠMITREidDataService": 2527,
      "ething": 2528,
      "ĠHttp": 2529,
      "Signed": 2530,
      "5678": 2531,
      "Ġability": 2532,
      "af": 2533,
      "redentials": 2534,
      "jbo": 2535,
      "omething": 2536,
      "ĠThis": 2537,
      "jboss": 2538,
      "FI": 2539,
      "New": 2540,
      "cument": 2541,
      "invalid": 2542,
      "IM": 2543,
      "handler": 2544,
      "CC": 2545,
      "dk": 2546,
      "Ġro": 2547,
      "verter": 2548,
      "ĠMatchers": 2549,
      "Mem": 2550,
      "password": 2551,
      "ont": 2552,
      "Policy": 2553,
      "ĠtypeSystem": 2554,
      "escriptor": 2555,
      "View": 2556,
      "oul": 2557,
      "Ġsign": 2558,
      "ĠJson": 2559,
      "web": 2560,
      "amed": 2561,
      "ĠLocal": 2562,
      "getBytes": 2563,
      "PATH": 2564,
      "Vari": 2565,
      "marsh": 2566,
      "Sql": 2567,
      "Tree": 2568,
      "nown": 2569,
      "erved": 2570,
      "Core": 2571,
      "Fix": 2572,
      "outp": 2573,
      "lose": 2574,
      "output": 2575,
      "44": 2576,
      "first": 2577,
      "icate": 2578,
      "ĠBasic": 2579,
      "Ġ9": 2580,
      "process": 2581,
      "Ġcopyright": 2582,
      "sk": 2583,
      "register": 2584,
      "EM": 2585,
      "can": 2586,
      "player": 2587,
      "Ġmust": 2588,
      "ainers": 2589,
      "Any": 2590,
      "HashSet": 2591,
      "URE": 2592,
      "Ġwh": 2593,
      "Mocks": 2594,
      "Without": 2595,
      "NullValue": 2596,
      "mation": 2597,
      "ĠClient": 2598,
      "ĠComp": 2599,
      "Second": 2600,
      "ync": 2601,
      "params": 2602,
      "apply": 2603,
      "Signature": 2604,
      "15": 2605,
      "Last": 2606,
      "factory": 2607,
      "ĠGraph": 2608,
      "Axiom": 2609,
      "wise": 2610,
      "ntax": 2611,
      "close": 2612,
      "ĠRun": 2613,
      "Ġlibrary": 2614,
      "DS": 2615,
      "view": 2616,
      "ison": 2617,
      "ainer": 2618,
      "Collection": 2619,
      "sharding": 2620,
      "group": 2621,
      "compare": 2622,
      "2001": 2623,
      "CI": 2624,
      "orith": 2625,
      "Counter": 2626,
      "Zero": 2627,
      "case": 2628,
      "nRequest": 2629,
      "Proxy": 2630,
      "ĠURI": 2631,
      "Op": 2632,
      "getKey": 2633,
      "Ġbut": 2634,
      "piration": 2635,
      "selectorName": 2636,
      "Metric": 2637,
      "xx": 2638,
      "Ġthen": 2639,
      "Expected": 2640,
      "Ġcontribut": 2641,
      "tocol": 2642,
      "collect": 2643,
      "mot": 2644,
      "Ġexec": 2645,
      "AllElements": 2646,
      "orithm": 2647,
      "names": 2648,
      "saved": 2649,
      "ored": 2650,
      "anc": 2651,
      "uture": 2652,
      "abled": 2653,
      "TS": 2654,
      "change": 2655,
      "anges": 2656,
      "ROUTE": 2657,
      "ILITY": 2658,
      "Jcr": 2659,
      "Shape": 2660,
      "cord": 2661,
      "line": 2662,
      "scope": 2663,
      "Ġvalid": 2664,
      "Ġafter": 2665,
      "<:><:>": 2666,
      "execut": 2667,
      "Matcher": 2668,
      "uster": 2669,
      "Ġstring": 2670,
      "Deployment": 2671,
      "ditions": 2672,
      "getM": 2673,
      "oose": 2674,
      "Seed": 2675,
      "dbc": 2676,
      "wrap": 2677,
      "Zk": 2678,
      "Ġart": 2679,
      "expect": 2680,
      "repared": 2681,
      "UB": 2682,
      "delete": 2683,
      "Ġ<}><)><;><": 2684,
      "urity": 2685,
      "odeShape": 2686,
      "ocket": 2687,
      "ORT": 2688,
      "services": 2689,
      "admin": 2690,
      "<(><)><)>,": 2691,
      "Ġbec": 2692,
      "Center": 2693,
      "ctions": 2694,
      "Author": 2695,
      "Ġdeals": 2696,
      "TAINER": 2697,
      "moting": 2698,
      "reparedUpdate": 2699,
      "mode": 2700,
      "Ġarr": 2701,
      "temp": 2702,
      "Char": 2703,
      "Ġgener": 2704,
      "servlet": 2705,
      "21": 2706,
      "event": 2707,
      "Ġtwo": 2708,
      "><)><)><)><;><": 2709,
      "chedule": 2710,
      "Adapt": 2711,
      "quilli": 2712,
      "Ġonly": 2713,
      "quillian": 2714,
      "26": 2715,
      "55": 2716,
      "axt": 2717,
      "info": 2718,
      "ĠĠĠĠĠĠĠĠĠ": 2719,
      "IOException": 2720,
      "Syntax": 2721,
      "runn": 2722,
      "axter": 2723,
      "ured": 2724,
      "Ġ\"\\\"<:>": 2725,
      "getNode": 2726,
      "Profile": 2727,
      "Ġ200": 2728,
      "eeper": 2729,
      "2018": 2730,
      "Ġ\"\\\"\"": 2731,
      "03": 2732,
      "Ġsettings": 2733,
      "AWS": 2734,
      "Ġnumber": 2735,
      "ending": 2736,
      "ling": 2737,
      "Contexts": 2738,
      "Ġwithout": 2739,
      "LIR": 2740,
      "Less": 2741,
      "ĠRes": 2742,
      "getRe": 2743,
      "ĠOperation": 2744,
      "runners": 2745,
      "Pattern": 2746,
      "56789": 2747,
      "{><": 2748,
      "ormal": 2749,
      "UUID": 2750,
      "getString": 2751,
      "ampler": 2752,
      "MAINTAINER": 2753,
      "crypted": 2754,
      "getD": 2755,
      "ĠSer": 2756,
      "ĠSamlResponse": 2757,
      "ources": 2758,
      "Auto": 2759,
      "leep": 2760,
      "lood": 2761,
      "open": 2762,
      "testRoot": 2763,
      "ĠAtomic": 2764,
      "Complet": 2765,
      "ĠClass": 2766,
      "OF": 2767,
      "Password": 2768,
      "ball": 2769,
      "link": 2770,
      "TestGroups": 2771,
      "ARD": 2772,
      "Ġcolor": 2773,
      "ĠProperty": 2774,
      "JW": 2775,
      "exist": 2776,
      "results": 2777,
      "FixFor": 2778,
      "Ign": 2779,
      "ince": 2780,
      "ences": 2781,
      "ĠCreature": 2782,
      "Ġblock": 2783,
      "faces": 2784,
      "Head": 2785,
      "Ob": 2786,
      "getResponse": 2787,
      "Assertion": 2788,
      "ĠLists": 2789,
      "Amazon": 2790,
      "Some": 2791,
      "Ġbuilder": 2792,
      "ĠRI": 2793,
      "kspace": 2794,
      "InjectMocks": 2795,
      "509": 2796,
      "getN": 2797,
      "addNode": 2798,
      "ulti": 2799,
      "Ġinvocation": 2800,
      "ĠBe": 2801,
      "tokenize": 2802,
      "instanceof": 2803,
      "Pool": 2804,
      "itoring": 2805,
      "timeException": 2806,
      "site": 2807,
      "ĠTr": 2808,
      "respon": 2809,
      "04": 2810,
      "arg": 2811,
      "ĠSimple": 2812,
      "127": 2813,
      "CH": 2814,
      "builder": 2815,
      "icOperand": 2816,
      "estro": 2817,
      "Ġ<}><;><": 2818,
      "Ġmet": 2819,
      "ĠFederated": 2820,
      "irected": 2821,
      "Children": 2822,
      "Ġsecond": 2823,
      "arnings": 2824,
      "estroy": 2825,
      "29": 2826,
      "Sample": 2827,
      "nodes": 2828,
      "alled": 2829,
      "ody": 2830,
      "html": 2831,
      "ĠModeShape": 2832,
      "notNullValue": 2833,
      "ĠSettingsBuilder": 2834,
      "allbackfn": 2835,
      "eClass": 2836,
      "sl": 2837,
      "anged": 2838,
      "ights": 2839,
      "ĠJcr": 2840,
      "CTED": 2841,
      "jobNodeStorage": 2842,
      "NumberColumn": 2843,
      "ĠRIPE": 2844,
      "ran": 2845,
      "ollow": 2846,
      "place": 2847,
      "PROPER": 2848,
      ":><": 2849,
      "CR": 2850,
      "appro": 2851,
      "Algorithm": 2852,
      "MODE": 2853,
      "Multiple": 2854,
      "cest": 2855,
      "ĉĉĉ": 2856,
      "hared": 2857,
      "logoutRequest": 2858,
      "ĠEnchant": 2859,
      "Saml": 2860,
      "ĠCount": 2861,
      "Ġhost": 2862,
      "Ġparse": 2863,
      "Ġvalidate": 2864,
      "notations": 2865,
      "Iterable": 2866,
      "NODE": 2867,
      "<)><)>": 2868,
      "Grant": 2869,
      "lying": 2870,
      "mbol": 2871,
      "ĠAttributeValue": 2872,
      "SAML": 2873,
      "me": 2874,
      "Objects": 2875,
      "ĠRed": 2876,
      "coordinator": 2877,
      "Warnings": 2878,
      "ik": 2879,
      "Ġroot": 2880,
      "Ġinput": 2881,
      "ferences": 2882,
      "ĠJava": 2883,
      "ĠCheck": 2884,
      "14": 2885,
      "FIG": 2886,
      "GG": 2887,
      "ication": 2888,
      "arison": 2889,
      "Exile": 2890,
      "HttpGet": 2891,
      "DynamoDB": 2892,
      "Segments": 2893,
      "!>": 2894,
      "One": 2895,
      "mod": 2896,
      "uff": 2897,
      "vc": 2898,
      "<(>\"<->": 2899,
      "Ġindex": 2900,
      "123": 2901,
      "erru": 2902,
      "fromFile": 2903,
      "><)><)><)>.": 2904,
      "SyntaxException": 2905,
      "PH": 2906,
      "hello": 2907,
      "rag": 2908,
      "schema": 2909,
      "we": 2910,
      "ĠResponse": 2911,
      "tries": 2912,
      "Ġpay": 2913,
      "pathFactory": 2914,
      "NoMore": 2915,
      "Found": 2916,
      "ĠDouble": 2917,
      "Bytes": 2918,
      "ameter": 2919,
      "\".": 2920,
      "Av": 2921,
      "YARD": 2922,
      "game": 2923,
      "literal": 2924,
      "Ġ<[><]": 2925,
      "Ġmap": 2926,
      "tributes": 2927,
      "ived": 2928,
      "Header": 2929,
      "VEYARD": 2930,
      "GRAVEYARD": 2931,
      "HttpServletRequest": 2932,
      "bat": 2933,
      "lang": 2934,
      "Ġerror": 2935,
      "Rewrite": 2936,
      "ULT": 2937,
      "BO": 2938,
      "Per": 2939,
      "TION": 2940,
      "Ver": 2941,
      "PropertyNames": 2942,
      "Encoding": 2943,
      "ByteBuffer": 2944,
      "..</>": 2945,
      ".<)><": 2946,
      "Params": 2947,
      "CESS": 2948,
      "Ġresource": 2949,
      "connect": 2950,
      "Ġwork": 2951,
      "ds": 2952,
      "vir": 2953,
      "ater": 2954,
      "ili": 2955,
      "Search": 2956,
      "EDGE": 2957,
      "located": 2958,
      "193": 2959,
      "responses": 2960,
      "<)>.<": 2961,
      "else": 2962,
      "URI": 2963,
      "Matches": 2964,
      "Security": 2965,
      "Ġnever": 2966,
      "JECT": 2967,
      "SP": 2968,
      "sr": 2969,
      "ultim": 2970,
      "IsNot": 2971,
      "HashMap": 2972,
      "onment": 2973,
      "uri": 2974,
      "ATA": 2975,
      "Ancest": 2976,
      "\\\",\\\"": 2977,
      "Ġ<[><]>,": 2978,
      "vironment": 2979,
      "ĠTime": 2980,
      "ClientException": 2981,
      "enticate": 2982,
      "ĠEX": 2983,
      "Arch": 2984,
      "MPL": 2985,
      "ciString": 2986,
      "ĠDEV": 2987,
      "<}>\"<)><;><": 2988,
      "48": 2989,
      "EN": 2990,
      "UNT": 2991,
      "Ġselection": 2992,
      "erType": 2993,
      "getB": 2994,
      "actor": 2995,
      "CONFIG": 2996,
      "SIGNED": 2997,
      "DO": 2998,
      "wner": 2999,
      "ĠActor": 3000,
      "Constants": 3001,
      "ĠtestC": 3002,
      "Ġadditional": 3003,
      "Hello": 3004,
      "Sharding": 3005,
      "Captor": 3006,
      "errupted": 3007,
      "50": 3008,
      "BR": 3009,
      "Xml": 3010,
      "values": 3011,
      "rowser": 3012,
      "Reflection": 3013,
      "Ġcounters": 3014,
      "ultimap": 3015,
      "ARE": 3016,
      "Ip": 3017,
      "ict": 3018,
      "ournal": 3019,
      "signed": 3020,
      "ĠArt": 3021,
      "Processor": 3022,
      "getPath": 3023,
      "ĠMessage": 3024,
      "Change": 3025,
      "Ġonto": 3026,
      "ByteArray": 3027,
      "block": 3028,
      "md": 3029,
      "ĠEdge": 3030,
      "Ġparams": 3031,
      "anguard": 3032,
      "files": 3033,
      "ĠValidation": 3034,
      "estamp": 3035,
      "tex": 3036,
      "ueball": 3037,
      "imestamp": 3038,
      "Ġfound": 3039,
      "blems": 3040,
      "cript": 3041,
      "instanceOf": 3042,
      "Scopes": 3043,
      "Level": 3044,
      "Mill": 3045,
      "wt": 3046,
      "Ġtypes": 3047,
      "exception": 3048,
      "actual": 3049,
      "JobNode": 3050,
      "ENTITY": 3051,
      "LOCATED": 3052,
      "Cert": 3053,
      "Port": 3054,
      "Tapped": 3055,
      "Using": 3056,
      "getRoot": 3057,
      "Ġjoin": 3058,
      "prop": 3059,
      "Ġuntil": 3060,
      "Ġparameters": 3061,
      "Ġchoose": 3062,
      "erruptedException": 3063,
      "AY": 3064,
      "Term": 3065,
      "rary": 3066,
      "ĠOW": 3067,
      "Future": 3068,
      "Support": 3069,
      "aa": 3070,
      "Ġversion": 3071,
      "isation": 3072,
      "pressWarnings": 3073,
      "OutputStream": 3074,
      "iant": 3075,
      "otal": 3076,
      "Register": 3077,
      "sameInstance": 3078,
      "pw": 3079,
      "urator": 3080,
      "Ġtheir": 3081,
      "REG": 3082,
      "Ġexile": 3083,
      "Symbol": 3084,
      "ĠanyObject": 3085,
      "SY": 3086,
      "TestPropertyNames": 3087,
      "Read": 3088,
      "Ġmodel": 3089,
      "ĠPRO": 3090,
      "ibrary": 3091,
      "MAX": 3092,
      "Ġstage": 3093,
      "OWL": 3094,
      "TRI": 3095,
      "ĠshouldCreate": 3096,
      "SECON": 3097,
      "mplates": 3098,
      "ĠArrays": 3099,
      "Ġauthentication": 3100,
      "SuppressWarnings": 3101,
      "Le": 3102,
      "ites": 3103,
      "PathExpression": 3104,
      "ĠRepository": 3105,
      "CLU": 3106,
      "accessToken": 3107,
      "flated": 3108,
      "inger": 3109,
      "eep": 3110,
      "Ġtear": 3111,
      "ĠURISyntaxException": 3112,
      "17": 3113,
      "method": 3114,
      "Ġmod": 3115,
      "imal": 3116,
      "ush": 3117,
      "ĠpathFactory": 3118,
      "06": 3119,
      "Cr": 3120,
      "NOT": 3121,
      "rement": 3122,
      "Ġown": 3123,
      "STO": 3124,
      "tact": 3125,
      "etty": 3126,
      "oun": 3127,
      "Ġwe": 3128,
      "Ġref": 3129,
      "ĠTO": 3130,
      "moved": 3131,
      "invoke": 3132,
      "tempt": 3133,
      "Mode": 3134,
      "stop": 3135,
      "Ġread": 3136,
      "Ignore": 3137,
      "Pair": 3138,
      "Ġ<{><@>": 3139,
      "Tokenizer": 3140,
      "01234": 3141,
      "HandlerTest": 3142,
      "37": 3143,
      "Immutable": 3144,
      "ove": 3145,
      "uct": 3146,
      "Ġ_": 3147,
      "anon": 3148,
      "Ġrun": 3149,
      "HttpAction": 3150,
      "Ġtech": 3151,
      "Secure": 3152,
      "*><*><*><*><*><*><*><*><*><*><*><*><*><*><*><*><*><*><*><*><*><*><*><*><*><*><*><*><*><*><*><*><": 3153,
      "ĠUpdateMessages": 3154,
      "ClientDetailsEntity": 3155,
      "ĠtearDown": 3156,
      "28": 3157,
      "Call": 3158,
      "aut": 3159,
      "now": 3160,
      "pre": 3161,
      "Ġmapping": 3162,
      "ATURE": 3163,
      "ĠCreate": 3164,
      "Ġgame": 3165,
      "Graphs": 3166,
      "><(><)><": 3167,
      "ared": 3168,
      "greg": 3169,
      "isFalse": 3170,
      "old": 3171,
      "asset": 3172,
      "Ġ100": 3173,
      "Ġdraw": 3174,
      "ally": 3175,
      "<]><)><;><": 3176,
      "COUNT": 3177,
      "Constra": 3178,
      "Workspace": 3179,
      "Aut": 3180,
      "zk": 3181,
      "orc": 3182,
      "edSite": 3183,
      "Ġdate": 3184,
      "ĠView": 3185,
      "keys": 3186,
      "Ġtrans": 3187,
      "OP": 3188,
      "Pre": 3189,
      "Ġservice": 3190,
      "Ġpack": 3191,
      "Ġbinary": 3192,
      "ĠImmutable": 3193,
      "Ġwill": 3194,
      "ĠBoolean": 3195,
      "Ġproperty": 3196,
      "Ancestor": 3197,
      "Fa": 3198,
      "Route": 3199,
      "hash": 3200,
      "sleep": 3201,
      "Ġver": 3202,
      "address": 3203,
      "Trait": 3204,
      "ĠTask": 3205,
      "iteria": 3206,
      "Sequ": 3207,
      "ĠVanguard": 3208,
      "Statist": 3209,
      "02": 3210,
      "Do": 3211,
      "Day": 3212,
      "edIn": 3213,
      "Ġ15": 3214,
      "issing": 3215,
      "single": 3216,
      "ABLE": 3217,
      ">\"<)><;><": 3218,
      "Federated": 3219,
      "II": 3220,
      "Page": 3221,
      "draw": 3222,
      "ating": 3223,
      "getRequest": 3224,
      "uler": 3225,
      "ntil": 3226,
      "ĠBase": 3227,
      "ĠGetElements": 3228,
      "ollowing": 3229,
      "Build": 3230,
      "OIN": 3231,
      "ĠNode": 3232,
      "Ġattack": 3233,
      "ines": 3234,
      "\"<)>.<": 3235,
      "Stats": 3236,
      "<(><)><)><)>.": 3237,
      "ĠGiven": 3238,
      "<]><;><": 3239,
      "ĠRedis": 3240,
      "NE": 3241,
      "hd": 3242,
      "Ġlo": 3243,
      "Ġnext": 3244,
      "Ġelements": 3245,
      "obj": 3246,
      "Handle": 3247,
      "meter": 3248,
      "gers": 3249,
      "jmeter": 3250,
      "uid": 3251,
      "Ġthread": 3252,
      "ĠSettingsException": 3253,
      "SECONDS": 3254,
      "This": 3255,
      "perator": 3256,
      "ĠSchema": 3257,
      "StoreProperties": 3258,
      "Avail": 3259,
      "so": 3260,
      "orted": 3261,
      "Ġpo": 3262,
      "Ġ<++>": 3263,
      "JobConfiguration": 3264,
      "MNTNER": 3265,
      "Ġ'</>": 3266,
      "tableA": 3267,
      "FIL": 3268,
      "ĠObjectType": 3269,
      "Ġsame": 3270,
      "setting": 3271,
      "Ġfollowing": 3272,
      "Ġconditions": 3273,
      "Decl": 3274,
      "hasNext": 3275,
      "equal": 3276,
      "Secret": 3277,
      "Ġtrigger": 3278,
      "Elite": 3279,
      "US": 3280,
      "nic": 3281,
      "repo": 3282,
      "getClientId": 3283,
      "/></><": 3284,
      "ular": 3285,
      "ExtensionLoader": 3286,
      "INETNUM": 3287,
      "lash": 3288,
      "arfield": 3289,
      "Ġcache": 3290,
      "claim": 3291,
      "Ġmapper": 3292,
      "ĠtestIs": 3293,
      "dateTime": 3294,
      "ĠOx": 3295,
      "parameters": 3296,
      "ĠDynam": 3297,
      "Chart": 3298,
      "Ġbegin": 3299,
      "CoreMatchers": 3300,
      "play": 3301,
      "sv": 3302,
      "tables": 3303,
      "ationContext": 3304,
      "Ġremove": 3305,
      "Only": 3306,
      "DynamicOperand": 3307,
      "Variable": 3308,
      "SHA": 3309,
      "empty": 3310,
      "Ġcall": 3311,
      "lice": 3312,
      "ferent": 3313,
      "ackson": 3314,
      "mitre": 3315,
      "ABILITY": 3316,
      "Ġleft": 3317,
      "ancer": 3318,
      "drawLine": 3319,
      "49": 3320,
      "MO": 3321,
      "yZero": 3322,
      "ĠExecution": 3323,
      "ĠCase": 3324,
      "<)><|>": 3325,
      "chem": 3326,
      "Interval": 3327,
      "PartitionServer": 3328,
      "anonical": 3329,
      "yZeroInteractions": 3330,
      "ES": 3331,
      "IP": 3332,
      "dao": 3333,
      "zz": 3334,
      "ĠexpResult": 3335,
      "Ġred": 3336,
      "ĠWh": 3337,
      "ERS": 3338,
      "ĠshouldReturn": 3339,
      "Ġenchant": 3340,
      "Segment": 3341,
      "ĠRuntimeException": 3342,
      "JWT": 3343,
      "tablesaw": 3344,
      "Other": 3345,
      "ĠMockito": 3346,
      "Ġ<&": 3347,
      "igin": 3348,
      "8080": 3349,
      "Generator": 3350,
      "ĠAuthentication": 3351,
      "Rest": 3352,
      "Ġlicense": 3353,
      "Ġplay": 3354,
      "ntology": 3355,
      "Ġanother": 3356,
      "Bound": 3357,
      "IA": 3358,
      "USER": 3359,
      "opt": 3360,
      "Ġcurrent": 3361,
      "TokenIs": 3362,
      "Annotations": 3363,
      "Events": 3364,
      "Encoder": 3365,
      "45": 3366,
      "DING": 3367,
      "Mod": 3368,
      "Pill": 3369,
      "SC": 3370,
      "ination": 3371,
      "Ġjson": 3372,
      "containsString": 3373,
      "NextTokenIs": 3374,
      "generate": 3375,
      "ĠByteArray": 3376,
      "ookeeper": 3377,
      "Headers": 3378,
      ".\"<)><;><": 3379,
      "Has": 3380,
      "route": 3381,
      "original": 3382,
      "getObject": 3383,
      "WithNo": 3384,
      "metadata": 3385,
      "Extractor": 3386,
      "<=>\"": 3387,
      "MENT": 3388,
      "mer": 3389,
      "serial": 3390,
      "ags": 3391,
      "Exact": 3392,
      "Converter": 3393,
      "imit": 3394,
      "Ġfoo": 3395,
      "Ġfilter": 3396,
      "pretty": 3397,
      "Wrapper": 3398,
      "Ġ2011": 3399,
      "clud": 3400,
      "marshaller": 3401,
      "ragon": 3402,
      "CLUDING": 3403,
      "Effect": 3404,
      "Num": 3405,
      "convert": 3406,
      "Ġfield": 3407,
      "ĠFor": 3408,
      "Selection": 3409,
      "Ġ192": 3410,
      "Archive": 3411,
      "orcery": 3412,
      "GP": 3413,
      "ptions": 3414,
      "<(><)><;>": 3415,
      "iggers": 3416,
      "Ġeq": 3417,
      "vided": 3418,
      "ached": 3419,
      "SERV": 3420,
      "ĠLogout": 3421,
      "Metrics": 3422,
      "fun": 3423,
      "THER": 3424,
      "ĠDynamoDB": 3425,
      "Two": 3426,
      "oth": 3427,
      "vi": 3428,
      "ĠRequest": 3429,
      "Ġselect": 3430,
      "Ġ</>": 3431,
      "order": 3432,
      "asy": 3433,
      "getColumn": 3434,
      "urm": 3435,
      "valu": 3436,
      "Ġfactory": 3437,
      "IENT": 3438,
      "Ġextract": 3439,
      "ĠDomain": 3440,
      "ConfigurationException": 3441,
      "archive": 3442,
      "Ġencod": 3443,
      "App": 3444,
      "HolderEntity": 3445,
      "ĠRedistribut": 3446,
      "Pillarfield": 3447,
      "30": 3448,
      "AX": 3449,
      "DV": 3450,
      "ell": 3451,
      "something": 3452,
      "itative": 3453,
      "ERR": 3454,
      "lower": 3455,
      "GRAPH": 3456,
      "HT": 3457,
      "gine": 3458,
      "getError": 3459,
      "ternal": 3460,
      "Role": 3461,
      "CB": 3462,
      "Hybrid": 3463,
      "itel": 3464,
      "Ġpre": 3465,
      "Trace": 3466,
      "Transaction": 3467,
      "FAULT": 3468,
      "ĠInterruptedException": 3469,
      "<(>'": 3470,
      "Mar": 3471,
      "hip": 3472,
      "ixt": 3473,
      "med": 3474,
      "oordinator": 3475,
      "spec": 3476,
      "anisation": 3477,
      "TestCase": 3478,
      "ĠAR": 3479,
      "CredentialsProvider": 3480,
      "Ġbeginning": 3481,
      "itativeResource": 3482,
      "58": 3483,
      "Am": 3484,
      "MIT": 3485,
      "attribute": 3486,
      "Ġgets": 3487,
      "Deck": 3488,
      "<(><)><)><)><": 3489,
      "clientId": 3490,
      "clude": 3491,
      "executor": 3492,
      "Ġcode": 3493,
      "ĠPrincipal": 3494,
      "Ġaff": 3495,
      "Ġinst": 3496,
      "Generated": 3497,
      "Millis": 3498,
      "Declared": 3499,
      "27": 3500,
      "ges": 3501,
      "anel": 3502,
      "ĠRights": 3503,
      "Ġchange": 3504,
      "<++><)>": 3505,
      "getStatusCode": 3506,
      "ĠReserved": 3507,
      "PROPERTY": 3508,
      "Clear": 3509,
      "Float": 3510,
      "lack": 3511,
      "expResult": 3512,
      "Ġmatch": 3513,
      "Project": 3514,
      "owl": 3515,
      "ĠThrow": 3516,
      "hasPrincipal": 3517,
      "ExileCount": 3518,
      "iliates": 3519,
      "ERROR": 3520,
      "Ġaffiliates": 3521,
      "df": 3522,
      "dest": 3523,
      "alt": 3524,
      "Ġjcr": 3525,
      "LIBR": 3526,
      "cheduler": 3527,
      "HttpServletResponse": 3528,
      "Available": 3529,
      "LIBRARY": 3530,
      "Bg": 3531,
      "Vers": 3532,
      "scri": 3533,
      "arpa": 3534,
      "olver": 3535,
      "ĠThread": 3536,
      "AfterClass": 3537,
      "retty": 3538,
      "Library": 3539,
      "initial": 3540,
      "ich": 3541,
      "reated": 3542,
      "Returns": 3543,
      "Ġroles": 3544,
      "Statistics": 3545,
      "<=><": 3546,
      "Land": 3547,
      "Multi": 3548,
      "Post": 3549,
      "Schedule": 3550,
      "Use": 3551,
      "buf": 3552,
      "gel": 3553,
      "irror": 3554,
      "yNoMore": 3555,
      "second": 3556,
      "Ġwould": 3557,
      "WithCredentials": 3558,
      "Abs": 3559,
      "PECTED": 3560,
      "FromString": 3561,
      "company": 3562,
      "handle": 3563,
      "0123456789": 3564,
      "yNoMoreInteractions": 3565,
      "TP": 3566,
      "det": 3567,
      "ules": 3568,
      "Remote": 3569,
      "Ġowner": 3570,
      "ĠPATH": 3571,
      "ĠOperator": 3572,
      "ART": 3573,
      "\\\"<:><": 3574,
      "Such": 3575,
      "Ġ\"<{>\\\"": 3576,
      "Items": 3577,
      "Actions": 3578,
      "Versions": 3579,
      "<[><": 3580,
      "<@><": 3581,
      "<--><--><->": 3582,
      "Ġserver": 3583,
      "while": 3584,
      "ferenc": 3585,
      "'<)>": 3586,
      "-->": 3587,
      "Descriptor": 3588,
      "SamlResponse": 3589,
      "override": 3590,
      "patch": 3591,
      "ĠZ": 3592,
      "Ġlocated": 3593,
      "ĠOr": 3594,
      "ĠshouldFail": 3595,
      "mitive": 3596,
      "application": 3597,
      "Meter": 3598,
      "Black": 3599,
      "getRootNode": 3600,
      "#<{>": 3601,
      "esn": 3602,
      "invocation": 3603,
      "RECT": 3604,
      "><)>,<": 3605,
      "Ġgain": 3606,
      "shut": 3607,
      "ACC": 3608,
      "itelist": 3609,
      "IR": 3610,
      "bb": 3611,
      "cache": 3612,
      "known": 3613,
      "olve": 3614,
      "ĠtestD": 3615,
      "finally": 3616,
      "Ġeffect": 3617,
      "ĠHost": 3618,
      "ĠĠĠĠĠĠĠĠĠĠ": 3619,
      "getCanonical": 3620,
      "Ġaccompany": 3621,
      "Ġaccompanying": 3622,
      "FOO": 3623,
      "asis": 3624,
      "Ġ1000": 3625,
      "Sets": 3626,
      "post": 3627,
      "ALL": 3628,
      "deck": 3629,
      "ManaSymbol": 3630,
      "orizationRequest": 3631,
      "Ġentity": 3632,
      "AUTH": 3633,
      "orrectly": 3634,
      "Containing": 3635,
      "ĠServ": 3636,
      "ĠTimeUnit": 3637,
      "Panel": 3638,
      "Yes": 3639,
      "uck": 3640,
      "Ġ<--><--><--><--><--><--><--><--><--><--><--><--><--><--><--><--><--><--><--><--><--><--><--><--><--><--><--><--><--><--><--><--><": 3641,
      "Ġ\"\"<;><": 3642,
      "extract": 3643,
      "verse": 3644,
      "Ġprovider": 3645,
      "ormalized": 3646,
      "ĠDynamoDBMapper": 3647,
      "UN": 3648,
      "Until": 3649,
      "custom": 3650,
      "lincoln": 3651,
      "Ġarray": 3652,
      "Ġorder": 3653,
      "voker": 3654,
      "Ġhandler": 3655,
      "agraphs": 3656,
      "Adapter": 3657,
      "<^": 3658,
      "EP": 3659,
      "IRI": 3660,
      "RTR": 3661,
      "alend": 3662,
      "remoting": 3663,
      "<(>\"\",": 3664,
      "Ġsub": 3665,
      "ĠSE": 3666,
      "GraphRow": 3667,
      "--><--><--><--><--><--><--><--><--><--><--><--><--><--><--><--><--><--><--><--><--><--><--><--><": 3668,
      "ULL": 3669,
      "failover": 3670,
      "Controller": 3671,
      "Ġ<--><--><--><--><--><--><--><--><--><--><--><--><--><--><--><--><--><--><--><--><--><--><--><--><--><--><--><--><--><--><--><--><--><--><--><--><--><--><--><--><--><--><--><--><--><--><--><--><--><--><--><--><--><--><--><--><": 3672,
      "alendar": 3673,
      "IB": 3674,
      "Socket": 3675,
      "ĠFound": 3676,
      "UTF": 3677,
      "Username": 3678,
      "==><==><==><==><==><==><==><==><": 3679,
      "Vis": 3680,
      "sp": 3681,
      "thread": 3682,
      "Ġ\"\"<)><;><": 3683,
      "Ġpr": 3684,
      "Attributes": 3685,
      "ROLE": 3686,
      "Ġ<(><(>": 3687,
      "ĠRewrite": 3688,
      "Arguments": 3689,
      "vedSite": 3690,
      "Applic": 3691,
      "FILE": 3692,
      "Custom": 3693,
      "Person": 3694,
      "Render": 3695,
      "SI": 3696,
      "]><": 3697,
      "non": 3698,
      "ok": 3699,
      "Ġipv": 3700,
      "isD": 3701,
      "ider": 3702,
      "Ġmy": 3703,
      "Ġmax": 3704,
      "-><@>": 3705,
      "INT": 3706,
      "Ġdec": 3707,
      "Cards": 3708,
      "uplic": 3709,
      "endant": 3710,
      "Paths": 3711,
      "2015": 3712,
      "ategory": 3713,
      "ACCESS": 3714,
      "singletonMap": 3715,
      "maryType": 3716,
      "Ġowners": 3717,
      "implements": 3718,
      "Ġsacr": 3719,
      "Ġ12": 3720,
      "ĠtestS": 3721,
      "Ġjob": 3722,
      "endpo": 3723,
      "Ġstep": 3724,
      "ĠThrowable": 3725,
      "Aws": 3726,
      "bound": 3727,
      "plan": 3728,
      "replace": 3729,
      "<(>\"$": 3730,
      "ĠAuto": 3731,
      "project": 3732,
      "Ġbeen": 3733,
      "ManaOptions": 3734,
      "<@><-><@>": 3735,
      "38": 3736,
      "AGG": 3737,
      "Sampler": 3738,
      "database": 3739,
      "should": 3740,
      "yyle": 3741,
      "Attr": 3742,
      "reader": 3743,
      "ierarch": 3744,
      "AuthorizationRequest": 3745,
      "~><~><~><~><": 3746,
      "Criteria": 3747,
      "ferenced": 3748,
      "yylex": 3749,
      "Length": 3750,
      "TRA": 3751,
      "bind": 3752,
      "oid": 3753,
      "watch": 3754,
      "Ġ\"\",": 3755,
      "storage": 3756,
      "Ġthan": 3757,
      "Ġsu": 3758,
      "lector": 3759,
      "elt": 3760,
      "ASSIGNED": 3761,
      "SED": 3762,
      "ĠChannel": 3763,
      "><(>\"": 3764,
      "currentGame": 3765,
      "Common": 3766,
      "xyz": 3767,
      "marks": 3768,
      "singletonList": 3769,
      "<...": 3770,
      "multimap": 3771,
      "nable": 3772,
      "ceed": 3773,
      "Ġcredentials": 3774,
      "uring": 3775,
      "ĠSoftware": 3776,
      "ĠIter": 3777,
      "TokenServices": 3778,
      "Ġevent": 3779,
      "encode": 3780,
      "RefreshTokenEntity": 3781,
      "RingGroup": 3782,
      "Ġinstead": 3783,
      "07": 3784,
      "36": 3785,
      "AP": 3786,
      "lf": 3787,
      "StringUtils": 3788,
      "ableIterable": 3789,
      "Enabled": 3790,
      "artition": 3791,
      "ixin": 3792,
      "mapper": 3793,
      "ciSet": 3794,
      "aims": 3795,
      "transition": 3796,
      "afe": 3797,
      "Seconds": 3798,
      "DER": 3799,
      "Full": 3800,
      "Ms": 3801,
      "My": 3802,
      "Que": 3803,
      "Ġ\\": 3804,
      "Ġused": 3805,
      "getParameter": 3806,
      "Trigger": 3807,
      "emo": 3808,
      "Ġ30": 3809,
      "blem": 3810,
      "Running": 3811,
      "Decimal": 3812,
      "Monitoring": 3813,
      "PathExpressionException": 3814,
      "asyMock": 3815,
      "Fac": 3816,
      "range": 3817,
      "Ġout": 3818,
      "etch": 3819,
      "Ġthere": 3820,
      "Ġso": 3821,
      "ĠAp": 3822,
      "Ġface": 3823,
      "ĠWeb": 3824,
      "ĉĉĉĠĠĠ": 3825,
      "authorization": 3826,
      "<++><)><": 3827,
      "Basic": 3828,
      "ĠGr": 3829,
      "reen": 3830,
      "ĠLink": 3831,
      "Protocol": 3832,
      "DEFAULT": 3833,
      "JsonToken": 3834,
      "AccessTokenEntity": 3835,
      "Write": 3836,
      "GET": 3837,
      "Facade": 3838,
      "AIN": 3839,
      "given": 3840,
      "ox": 3841,
      "Ġ<|": 3842,
      "thing": 3843,
      "getEx": 3844,
      "getElements": 3845,
      "getCredentials": 3846,
      "Ġplan": 3847,
      "ĠPri": 3848,
      "setId": 3849,
      "Ġnames": 3850,
      "cret": 3851,
      "><(><)><)><;><": 3852,
      "nextToken": 3853,
      "Aggreg": 3854,
      "getCanonicalName": 3855,
      "Limit": 3856,
      "NCC": 3857,
      "bug": 3858,
      "description": 3859,
      "ful": 3860,
      "lv": 3861,
      "left": 3862,
      "andard": 3863,
      "Ġdies": 3864,
      "0001": 3865,
      "ĠTe": 3866,
      "supported": 3867,
      "getReferenceObject": 3868,
      "DATA": 3869,
      "Hank": 3870,
      "Sdk": 3871,
      "Want": 3872,
      "Ġ<}>,": 3873,
      "ulk": 3874,
      "Required": 3875,
      "Engine": 3876,
      "ITH": 3877,
      "owired": 3878,
      "Ġsetting": 3879,
      "Execute": 3880,
      "256": 3881,
      "Ġtemplate": 3882,
      "ĠXPathExpressionException": 3883,
      "eaders": 3884,
      "loseableIterable": 3885,
      "ingerpr": 3886,
      "ierarchy": 3887,
      ",\\\"": 3888,
      "05": 3889,
      "08": 3890,
      ">\"<)><)><;><": 3891,
      "MIN": 3892,
      "OUT": 3893,
      "ah": 3894,
      "ven": 3895,
      "Ġ<%><": 3896,
      "escr": 3897,
      "ano": 3898,
      "getAnd": 3899,
      "ntTemplate": 3900,
      "omes": 3901,
      "rier": 3902,
      "NotFound": 3903,
      "Ġparameter": 3904,
      "ĠIndex": 3905,
      "LocalDate": 3906,
      "Ġcolumns": 3907,
      "Ġ</></><": 3908,
      "Autowired": 3909,
      "42": 3910,
      "Current": 3911,
      "Ran": 3912,
      "Since": 3913,
      "TW": 3914,
      "after": 3915,
      "number": 3916,
      "Ġiter": 3917,
      "Ġsome": 3918,
      "abuse": 3919,
      "validator": 3920,
      "128": 3921,
      "HttpClient": 3922,
      "Ġchannel": 3923,
      "regis": 3924,
      "ĠByteBuffer": 3925,
      "Ġ</><*><": 3926,
      "Ġbecause": 3927,
      "ucket": 3928,
      "77": 3929,
      ">\",": 3930,
      "dis": 3931,
      "uctor": 3932,
      "etwe": 3933,
      "isEqualTo": 3934,
      "getHost": 3935,
      "Ġtop": 3936,
      "ural": 3937,
      "authenticate": 3938,
      "Ġexecut": 3939,
      "etween": 3940,
      "<-><": 3941,
      "PUT": 3942,
      "Sha": 3943,
      "ipe": 3944,
      "will": 3945,
      "ĠType": 3946,
      "Ġfind": 3947,
      "Ġ\",": 3948,
      "Inet": 3949,
      "REF": 3950,
      "Ġright": 3951,
      "ROOT": 3952,
      "Ġsetup": 3953,
      "DomainVersion": 3954,
      "duce": 3955,
      "ski": 3956,
      "ĠAtomicInteger": 3957,
      "Ġmetadata": 3958,
      "</><*><*><": 3959,
      "Br": 3960,
      "Big": 3961,
      "GRS": 3962,
      "gu": 3963,
      "iri": 3964,
      "iha": 3965,
      "rest": 3966,
      "rpc": 3967,
      "tc": 3968,
      "Ġcallbackfn": 3969,
      "ĠFlying": 3970,
      "ĠTarget": 3971,
      "ConfigurationProvider": 3972,
      "amedSelector": 3973,
      "Ġcontributors": 3974,
      "Ġ<%><%><": 3975,
      "Min": 3976,
      "jo": 3977,
      "txt": 3978,
      "uce": 3979,
      "vski": 3980,
      "ĠIII": 3981,
      "ĠBaxter": 3982,
      "Tokens": 3983,
      "ĠMiha": 3984,
      "Ġless": 3985,
      "ĠFilter": 3986,
      "ĠTH": 3987,
      "appings": 3988,
      "mocked": 3989,
      "ServiceException": 3990,
      "commons": 3991,
      "Answer": 3992,
      "lank": 3993,
      "00001": 3994,
      "Existed": 3995,
      "46": 3996,
      "jlo": 3997,
      "reference": 3998,
      "step": 3999,
      "imer": 4000,
      "part": 4001,
      "Attempt": 4002,
      "writer": 4003,
      "Ġattribute": 4004,
      "matic": 4005,
      "OnMock": 4006,
      "LOCK": 4007,
      "CLIENT": 4008,
      "resourceData": 4009,
      "Authority": 4010,
      "Ġ2001": 4011,
      "STORE": 4012,
      "hdl": 4013,
      "ĠSELECT": 4014,
      "ĠMihajlo": 4015,
      "31": 4016,
      "CS": 4017,
      "Ion": 4018,
      "SIT": 4019,
      "Wait": 4020,
      "hy": 4021,
      "ued": 4022,
      "><[><]": 4023,
      "apc": 4024,
      "olche": 4025,
      "ĠSc": 4026,
      "lectUtils": 4027,
      "redirect": 4028,
      "ĠTable": 4029,
      "QueryString": 4030,
      "%>'": 4031,
      "apture": 4032,
      "ĠnodeSet": 4033,
      "Output": 4034,
      "begin": 4035,
      "Ġequal": 4036,
      "999": 4037,
      "ikolche": 4038,
      "FILTER": 4039,
      "functions": 4040,
      "Ġownership": 4041,
      "ĠMihajlovski": 4042,
      "35": 4043,
      "Cars": 4044,
      "Mirror": 4045,
      "SH": 4046,
      "bal": 4047,
      "ements": 4048,
      "Ġlicenses": 4049,
      "arquillian": 4050,
      "Rel": 4051,
      "addr": 4052,
      "ĠON": 4053,
      "ASF": 4054,
      "ĠASF": 4055,
      "Ġauthor": 4056,
      "Ġagreements": 4057,
      "logoutResponse": 4058,
      "PROP": 4059,
      "Ġregarding": 4060,
      "ĠNOTICE": 4061,
      "Accept": 4062,
      "Ġcontributor": 4063,
      "Vertex": 4064,
      "ĠFoundation": 4065,
      "willReturn": 4066,
      "?><": 4067,
      "Em": 4068,
      "Sites": 4069,
      "Ġoutput": 4070,
      "Ġ\"..": 4071,
      "getResource": 4072,
      "resent": 4073,
      "Ġret": 4074,
      "Static": 4075,
      "Ġprocess": 4076,
      "singException": 4077,
      "getSubject": 4078,
      "Rows": 4079,
      "ĠParser": 4080,
      "ĠstateMachine": 4081,
      "CIString": 4082,
      "39": 4083,
      ">'": 4084,
      "Arr": 4085,
      "Space": 4086,
      "copy": 4087,
      "prefix": 4088,
      "xpath": 4089,
      "ason": 4090,
      "TestBase": 4091,
      "StringBase": 4092,
      "Equip": 4093,
      "ĠBY": 4094,
      "Param": 4095,
      "Changed": 4096,
      "ĠEmpty": 4097,
      "ĠNO": 4098,
      "Ġstill": 4099,
      "keyword": 4100,
      "ALLOCATED": 4101,
      "192": 4102,
      "Ġkg": 4103,
      "Approval": 4104,
      "LessSpec": 4105,
      "openid": 4106,
      "approval": 4107,
      "Sequence": 4108,
      "Foo": 4109,
      "Loc": 4110,
      "gp": 4111,
      "mn": 4112,
      "oasis": 4113,
      "sist": 4114,
      "Ġedge": 4115,
      "Ġ<|>": 4116,
      "editor": 4117,
      "Tests": 4118,
      "off": 4119,
      "ĠJSON": 4120,
      "whoisTemplate": 4121,
      "WebService": 4122,
      "Ġallow": 4123,
      "TRIB": 4124,
      "dates": 4125,
      "onent": 4126,
      "Ġsupport": 4127,
      "<)><)>,": 4128,
      "ĠMy": 4129,
      "168": 4130,
      "ĠParserConfigurationException": 4131,
      "FF": 4132,
      "Final": 4133,
      "gment": 4134,
      "ply": 4135,
      "ward": 4136,
      "isIn": 4137,
      "edList": 4138,
      "addAs": 4139,
      "ĠPath": 4140,
      "Ġinvalid": 4141,
      "IED": 4142,
      "ONE": 4143,
      "TokenStore": 4144,
      "imeType": 4145,
      "UTOR": 4146,
      "ĉĉĠĠĠĠĠĠ": 4147,
      "expectedResults": 4148,
      "Regex": 4149,
      "getSh": 4150,
      "Optional": 4151,
      "Ġabove": 4152,
      "ĠAddElements": 4153,
      "PROJECT": 4154,
      "ĠshouldNotAllow": 4155,
      "Memory": 4156,
      "chemata": 4157,
      "XX": 4158,
      "ike": 4159,
      "Ġus": 4160,
      "Ġlog": 4161,
      "INF": 4162,
      "HAN": 4163,
      "Ġprovided": 4164,
      "ĠCollection": 4165,
      "Dispatch": 4166,
      "QUAL": 4167,
      "AXException": 4168,
      "ScheduleController": 4169,
      "AQ": 4170,
      "AMA": 4171,
      "BAS": 4172,
      "rt": 4173,
      "alker": 4174,
      "Ġperson": 4175,
      "expr": 4176,
      "olute": 4177,
      "Star": 4178,
      "oted": 4179,
      "Ġoperation": 4180,
      "consumer": 4181,
      "ĠFOR": 4182,
      "FileObject": 4183,
      "writeValue": 4184,
      "AMP": 4185,
      "ĠcreateStage": 4186,
      "TOKE": 4187,
      "decode": 4188,
      "AllElementsHandlerTest": 4189,
      "exists": 4190,
      "Clo": 4191,
      "Dir": 4192,
      "cc": 4193,
      "orph": 4194,
      "encod": 4195,
      "Ġ\"<->": 4196,
      "Remove": 4197,
      "Inc": 4198,
      "abstract": 4199,
      "ĠSOF": 4200,
      "ToString": 4201,
      "chematic": 4202,
      "NameId": 4203,
      "\"<)><)><)><)><;><": 4204,
      "ThrowException": 4205,
      "itelistedSite": 4206,
      "TWARE": 4207,
      "ĠSOFTWARE": 4208,
      "1000": 4209,
      "Lines": 4210,
      "gmail": 4211,
      "ires": 4212,
      "ĠState": 4213,
      "ceived": 4214,
      "rizz": 4215,
      "Ġ17": 4216,
      "ĠSoul": 4217,
      "Ġtests": 4218,
      "Async": 4219,
      "Syn": 4220,
      "ĠInstant": 4221,
      "<]><": 4222,
      "Errors": 4223,
      "Load": 4224,
      "matches": 4225,
      "Ġsignature": 4226,
      "ĠDoubleColumn": 4227,
      "MODI": 4228,
      "ĠshouldFailTo": 4229,
      "AMAGE": 4230,
      "rizzly": 4231,
      "JMeter": 4232,
      "Latch": 4233,
      "Sk": 4234,
      "bre": 4235,
      "iJ": 4236,
      "erface": 4237,
      "ased": 4238,
      "isTrue": 4239,
      "isNot": 4240,
      "<(><)>.<": 4241,
      "Ġcalled": 4242,
      "Ġpri": 4243,
      "oder": 4244,
      "Ġsite": 4245,
      "ĠAccess": 4246,
      "Ġmake": 4247,
      "umm": 4248,
      "ĠtestSet": 4249,
      "Enque": 4250,
      "Att": 4251,
      "ĠMet": 4252,
      "ĠMana": 4253,
      "Arquillian": 4254,
      "nodeSet": 4255,
      "mailto": 4256,
      "Aw": 4257,
      "EQUAL": 4258,
      "day": 4259,
      "ear": 4260,
      "ark": 4261,
      "Ġnow": 4262,
      "Ġdeck": 4263,
      "Ġbuffer": 4264,
      "interface": 4265,
      "pair": 4266,
      "ĠDatabase": 4267,
      "Ident": 4268,
      "item": 4269,
      "Ġnotice": 4270,
      "Ġ'<": 4271,
      "ĠLIMIT": 4272,
      "ListenerManager": 4273,
      "ĠClientDetails": 4274,
      "cceed": 4275,
      "za": 4276,
      "idp": 4277,
      "Ġmon": 4278,
      "ĠSome": 4279,
      "Enum": 4280,
      "ĠRef": 4281,
      "OperationException": 4282,
      "CREATE": 4283,
      "InvocationOnMock": 4284,
      "LastEnque": 4285,
      "Charact": 4286,
      "ClearLastEnque": 4287,
      "getAndClearLastEnque": 4288,
      "uedCommand": 4289,
      "getAndClearLastEnqueuedCommand": 4290,
      "EY": 4291,
      "Missing": 4292,
      "icon": 4293,
      "getTable": 4294,
      "abel": 4295,
      "Ġ11": 4296,
      "Ġnum": 4297,
      "Methods": 4298,
      "ĠProfile": 4299,
      "COL": 4300,
      "jsp": 4301,
      "ĠOperationException": 4302,
      "assetNodeType": 4303,
      "getObjectId": 4304,
      "ĠTHIS": 4305,
      "Have": 4306,
      "MT": 4307,
      "NIC": 4308,
      "baxter": 4309,
      "flow": 4310,
      "rs": 4311,
      "origin": 4312,
      ".<[>": 4313,
      "ĠshouldGet": 4314,
      "ĠĠĠĠĠĠĠĠĠĠĠ": 4315,
      "Ġspells": 4316,
      "CRIT": 4317,
      "ReflectionUtils": 4318,
      "ĠByteArrayInputStream": 4319,
      "stepfunctions": 4320,
      "</>..</>": 4321,
      "Calendar": 4322,
      "Pop": 4323,
      "tx": 4324,
      "></></>": 4325,
      "atible": 4326,
      "edia": 4327,
      "getR": 4328,
      "getAction": 4329,
      "Ġci": 4330,
      "ptim": 4331,
      "Ġscope": 4332,
      "ĠSliver": 4333,
      "ĠSAXException": 4334,
      "term": 4335,
      "ĠWurm": 4336,
      "ĠUSE": 4337,
      "Ġheader": 4338,
      "parseLiteral": 4339,
      "QueryWith": 4340,
      "JobListener": 4341,
      "ĠInvalid": 4342,
      "ThreadGroup": 4343,
      "getById": 4344,
      "Connector": 4345,
      "Ġstatements": 4346,
      "FIX": 4347,
      "SampleResult": 4348,
      "hashCode": 4349,
      "67": 4350,
      "CAST": 4351,
      "Ed": 4352,
      "Lower": 4353,
      "Public": 4354,
      "binary": 4355,
      "di": 4356,
      "ĠRE": 4357,
      "Strict": 4358,
      "Init": 4359,
      "InAny": 4360,
      "ĠPer": 4361,
      "setName": 4362,
      "imate": 4363,
      "ĠIMPL": 4364,
      "ĠBUT": 4365,
      "ĠDAMAGE": 4366,
      "Ġ2018": 4367,
      "startAt": 4368,
      "ĠLIABILITY": 4369,
      "invoker": 4370,
      "ĠaccessToken": 4371,
      "ĠNoSuch": 4372,
      "Does": 4373,
      "ĠLIMITED": 4374,
      "ĠIMPLIED": 4375,
      "Are": 4376,
      "Db": 4377,
      "mana": 4378,
      "ping": 4379,
      "sition": 4380,
      "init": 4381,
      "getClient": 4382,
      "role": 4383,
      "Ġsc": 4384,
      "Ġexiled": 4385,
      "Environment": 4386,
      "tainer": 4387,
      "Ġlast": 4388,
      "area": 4389,
      "grant": 4390,
      "Generic": 4391,
      "checked": 4392,
      "getCurrent": 4393,
      "IRECT": 4394,
      "Rs": 4395,
      "dle": 4396,
      "directed": 4397,
      "hybrid": 4398,
      "remarks": 4399,
      "ested": 4400,
      "unused": 4401,
      "reset": 4402,
      "dateColumn": 4403,
      "Counters": 4404,
      "OMAIN": 4405,
      "ird": 4406,
      "STEM": 4407,
      "ĠORG": 4408,
      "Ġwriter": 4409,
      "Ġendpo": 4410,
      "databaseHelper": 4411,
      "InAnyOrder": 4412,
      "47": 4413,
      "EasyMock": 4414,
      "Over": 4415,
      "Rir": 4416,
      "lish": 4417,
      "ĠValue": 4418,
      "search": 4419,
      "Ġmappings": 4420,
      "Ġdescription": 4421,
      "ĠRo": 4422,
      "Ġlock": 4423,
      "Constructor": 4424,
      "Flag": 4425,
      "Cell": 4426,
      "NO": 4427,
      "NCE": 4428,
      "OSS": 4429,
      "]>,": 4430,
      "lin": 4431,
      "Ġload": 4432,
      "perand": 4433,
      "INCLUDING": 4434,
      "Authors": 4435,
      "ERIA": 4436,
      "ĠshouldBuild": 4437,
      "Ġdisclaim": 4438,
      "HttpResponse": 4439,
      "ĠCONTRIB": 4440,
      "HEMA": 4441,
      "Ġadded": 4442,
      "ricted": 4443,
      "Primitive": 4444,
      "Ġwhich": 4445,
      "ĠRedistributions": 4446,
      "Absolute": 4447,
      "AGGREG": 4448,
      "UTORS": 4449,
      "CRITERIA": 4450,
      "Ġdisclaimer": 4451,
      "ĠCONTRIBUTORS": 4452,
      "Coordinator": 4453,
      "Mvc": 4454,
      "RON": 4455,
      "nite": 4456,
      "getContent": 4457,
      "Ġma": 4458,
      "Contains": 4459,
      "umul": 4460,
      "avail": 4461,
      "Ġhref": 4462,
      "emb": 4463,
      "Ġstream": 4464,
      "Unmarshaller": 4465,
      "nameTest": 4466,
      "AddGraph": 4467,
      "Comparison": 4468,
      "ĠmanaOptions": 4469,
      "suer": 4470,
      "TimeoutMs": 4471,
      "LogoutRequest": 4472,
      "<[><%><": 4473,
      "(><)>": 4474,
      "Creature": 4475,
      "LL": 4476,
      "bl": 4477,
      "cueball": 4478,
      "holder": 4479,
      "keep": 4480,
      "target": 4481,
      "Ġ16": 4482,
      "ainedIn": 4483,
      "ĠSign": 4484,
      "testUser": 4485,
      "Encrypted": 4486,
      "authn": 4487,
      "ESTAMP": 4488,
      "\"<)><)><)><": 4489,
      "objectDao": 4490,
      "ParentStatus": 4491,
      "IMESTAMP": 4492,
      "Ġexecute": 4493,
      "SCHEMA": 4494,
      "valuationContext": 4495,
      "Location": 4496,
      "Browser": 4497,
      "Ġlocal": 4498,
      "record": 4499,
      "Ġmnt": 4500,
      "ĠOTHER": 4501,
      "ĠReturn": 4502,
      "Clone": 4503,
      "ĠAuthor": 4504,
      "ĠArg": 4505,
      "RirSpace": 4506,
      "ainedInRirSpace": 4507,
      "Max": 4508,
      "auto": 4509,
      "plied": 4510,
      "ym": 4511,
      "Ġ<&>": 4512,
      "cts": 4513,
      "ĠIt": 4514,
      "\"<)><)>": 4515,
      "ĠshouldAllow": 4516,
      "ArrayEquals": 4517,
      "PREFIX": 4518,
      "AuthenticationToken": 4519,
      "ĠauthorizationRequest": 4520,
      "Uris": 4521,
      "Ġ2010": 4522,
      "ĠuserAuthentication": 4523,
      "CheckArg": 4524,
      "Allowed": 4525,
      "White": 4526,
      "ĠcurrentGame": 4527,
      "',": 4528,
      "Duplic": 4529,
      "JOIN": 4530,
      "Pack": 4531,
      "header": 4532,
      "jdbc": 4533,
      "mapping": 4534,
      "inder": 4535,
      "enied": 4536,
      "entries": 4537,
      "Ġpower": 4538,
      "oded": 4539,
      "ThatSql": 4540,
      "Ġ18": 4541,
      "INE": 4542,
      "Ġunt": 4543,
      "</><->": 4544,
      "LIST": 4545,
      "getScope": 4546,
      "signature": 4547,
      "ĠtableA": 4548,
      "authenticationSubject": 4549,
      "ĠCounterType": 4550,
      "Ġ<&&>": 4551,
      "<(>\"$.": 4552,
      "NotFoundException": 4553,
      "Ent": 4554,
      "Pred": 4555,
      "SD": 4556,
      "au": 4557,
      "baz": 4558,
      "multiple": 4559,
      "allow": 4560,
      "getChild": 4561,
      "Ġcert": 4562,
      "assign": 4563,
      "andid": 4564,
      "Ġword": 4565,
      "Ġelement": 4566,
      "Ġhash": 4567,
      "enticated": 4568,
      "ĠGiant": 4569,
      "Ġgroup": 4570,
      "ĠclientDetails": 4571,
      "columns": 4572,
      "Transl": 4573,
      "Active": 4574,
      "ĠExile": 4575,
      "ĠEntitySeed": 4576,
      "SYSTEM": 4577,
      "Amount": 4578,
      "Queue": 4579,
      "Blood": 4580,
      "EL": 4581,
      "It": 4582,
      "QQ": 4583,
      "Slash": 4584,
      "ped": 4585,
      "rink": 4586,
      "si": 4587,
      "sha": 4588,
      "tin": 4589,
      "quire": 4590,
      "Prop": 4591,
      "Ġanswer": 4592,
      "ĠELECT": 4593,
      "short": 4594,
      "ardingContexts": 4595,
      "Ġkeys": 4596,
      "Ġupdated": 4597,
      "ĠParsingException": 4598,
      "DownLatch": 4599,
      "ĠElemental": 4600,
      "escendant": 4601,
      "EXPECTED": 4602,
      "OrgType": 4603,
      "ĠBears": 4604,
      "available": 4605,
      "Cap": 4606,
      "MITREidDataService": 4607,
      "NV": 4608,
      "Normalized": 4609,
      "send": 4610,
      "ories": 4611,
      "Ġsure": 4612,
      "ĠCrow": 4613,
      "Resolver": 4614,
      "Ġinet": 4615,
      "ĠElect": 4616,
      "LocalName": 4617,
      "ĠSets": 4618,
      "Ġcontroller": 4619,
      "RpslObjectInfo": 4620,
      "ACK": 4621,
      "ĠAddress": 4622,
      "rypt": 4623,
      "skip": 4624,
      "LessThan": 4625,
      "Ġpacked": 4626,
      "Lincoln": 4627,
      "eg": 4628,
      "nam": 4629,
      "pImport": 4630,
      "tration": 4631,
      "sem": 4632,
      "Ġshared": 4633,
      "ĠAws": 4634,
      "ĠPreparedUpdate": 4635,
      "paces": 4636,
      "Ġreference": 4637,
      "outes": 4638,
      "Configurator": 4639,
      "PropertyType": 4640,
      "fake": 4641,
      "Ġcreated": 4642,
      "Validate": 4643,
      "ĠKEY": 4644,
      "><)><)>.": 4645,
      "ivated": 4646,
      "Ġwrite": 4647,
      "matter": 4648,
      "aptured": 4649,
      "ThreadPool": 4650,
      "plit": 4651,
      "ĠDefaultOAuth": 4652,
      "PatternParser": 4653,
      "ĠEnchantment": 4654,
      "lincolnbaxter": 4655,
      "<}>.<": 4656,
      "EA": 4657,
      "EB": 4658,
      "fire": 4659,
      "ĠContext": 4660,
      "rows": 4661,
      "perm": 4662,
      "ĠITS": 4663,
      "ĠgetPermanent": 4664,
      "def": 4665,
      "startsWith": 4666,
      "ronic": 4667,
      "ĠArts": 4668,
      "ĠValidationError": 4669,
      "dateTimeColumn": 4670,
      "ĠARTS": 4671,
      "WebServiceRequest": 4672,
      "RONIC": 4673,
      "ĠELECTRONIC": 4674,
      "ĠElectronic": 4675,
      "Soul": 4676,
      "mix": 4677,
      "sql": 4678,
      "Ġuri": 4679,
      "anter": 4680,
      "getTime": 4681,
      "getFirst": 4682,
      "getWorkspace": 4683,
      "stjs": 4684,
      "very": 4685,
      "Prov": 4686,
      "Ġinfo": 4687,
      "eyJ": 4688,
      "types": 4689,
      "Enable": 4690,
      "ĠUUID": 4691,
      "Ġgains": 4692,
      "ĠVer": 4693,
      "organisation": 4694,
      "Ġactor": 4695,
      "legate": 4696,
      "getIdp": 4697,
      "ĠAnswer": 4698,
      "ĠAngel": 4699,
      "motingException": 4700,
      "Ġgenerate": 4701,
      "go": 4702,
      "her": 4703,
      "ten": 4704,
      "eser": 4705,
      "ĠJoin": 4706,
      "JobRegis": 4707,
      "generator": 4708,
      "federatedstore": 4709,
      "ĠOWL": 4710,
      "Registered": 4711,
      "01234567890123456789": 4712,
      "880": 4713,
      ">\"": 4714,
      "Greater": 4715,
      "Total": 4716,
      "pend": 4717,
      "ĠConfig": 4718,
      "esh": 4719,
      "References": 4720,
      "Ġfake": 4721,
      "oost": 4722,
      "elf": 4723,
      "FIED": 4724,
      "ief": 4725,
      "Ġgiven": 4726,
      "ĠTree": 4727,
      "worksWith": 4728,
      "KEEP": 4729,
      "findFirst": 4730,
      "increment": 4731,
      "COPE": 4732,
      "Operations": 4733,
      "Ġbecomes": 4734,
      "deckList": 4735,
      "PanelChart": 4736,
      "ĠIterable": 4737,
      "COLUM": 4738,
      "worksWithParentStatus": 4739,
      "88": 4740,
      "Bar": 4741,
      "Direct": 4742,
      "Grizzly": 4743,
      "dynam": 4744,
      "lt": 4745,
      "tot": 4746,
      "Ġpair": 4747,
      "Ġfederated": 4748,
      "Ġinstant": 4749,
      "Ġconne": 4750,
      "Clients": 4751,
      "Ġring": 4752,
      "Ġroute": 4753,
      "configuration": 4754,
      "Ġproject": 4755,
      "usted": 4756,
      "ĠplayerD": 4757,
      "Started": 4758,
      "BOL": 4759,
      "actories": 4760,
      "Bo": 4761,
      "BLOCK": 4762,
      "FOR": 4763,
      "Ht": 4764,
      "credentials": 4765,
      "callbackfn": 4766,
      "eEach": 4767,
      "float": 4768,
      "sider": 4769,
      "ze": 4770,
      "rex": 4771,
      "Exchange": 4772,
      "Ġsize": 4773,
      "istory": 4774,
      "Ġbug": 4775,
      "AuthHolder": 4776,
      "elp": 4777,
      "sitive": 4778,
      "struct": 4779,
      "><(><)>,": 4780,
      "ĠGener": 4781,
      "PrefixRange": 4782,
      "nsCheck": 4783,
      "Ġencoded": 4784,
      "ediaType": 4785,
      "andidates": 4786,
      "GreaterThan": 4787,
      "Cast": 4788,
      "MimeType": 4789,
      "ced": 4790,
      "found": 4791,
      "man": 4792,
      "ti": 4793,
      "wait": 4794,
      "Ġtext": 4795,
      "ĠlogoutRequest": 4796,
      "ond": 4797,
      "isMa": 4798,
      "getResult": 4799,
      "Equi": 4800,
      "Invoker": 4801,
      "ERT": 4802,
      "Ġgo": 4803,
      "thenAnswer": 4804,
      "ĠNe": 4805,
      "PECI": 4806,
      "debug": 4807,
      "StoreTrait": 4808,
      "ederation": 4809,
      "ManaAbility": 4810,
      "Ġ2016": 4811,
      "ĠConstants": 4812,
      "Private": 4813,
      "matcher": 4814,
      "ĠLogger": 4815,
      "Ġconverted": 4816,
      "ontology": 4817,
      "HTTP": 4818,
      "Commons": 4819,
      "totype": 4820,
      "rexian": 4821,
      "<}>\",<": 4822,
      "UC": 4823,
      "fed": 4824,
      "tom": 4825,
      "ĠZk": 4826,
      "ick": 4827,
      "ays": 4828,
      "ulation": 4829,
      "Ġback": 4830,
      "Ġexist": 4831,
      "Ġreader": 4832,
      "NameAmount": 4833,
      "prototype": 4834,
      "oblin": 4835,
      "TimeUnit": 4836,
      "ResourceDetails": 4837,
      "Ġproperties": 4838,
      "Ġtokens": 4839,
      "Ġabilities": 4840,
      "UPKEEP": 4841,
      "BASIC": 4842,
      "permanent": 4843,
      "!><": 4844,
      "86": 4845,
      "BA": 4846,
      "BER": 4847,
      "NRequest": 4848,
      "PORT": 4849,
      "Round": 4850,
      "bG": 4851,
      "gative": 4852,
      "hancer": 4853,
      "sm": 4854,
      "getArguments": 4855,
      "Problems": 4856,
      "ĠBinary": 4857,
      "FileObjects": 4858,
      "selectStar": 4859,
      "DefinitionTemplate": 4860,
      "Failed": 4861,
      "NEW": 4862,
      "hyrexian": 4863,
      "HM": 4864,
      "PI": 4865,
      "fs": 4866,
      "eric": 4867,
      "Ġ\"<)><;><": 4868,
      "edWith": 4869,
      "getDeclared": 4870,
      "ilation": 4871,
      "tech": 4872,
      "Ġmin": 4873,
      "ĠSHA": 4874,
      "ĠCom": 4875,
      "ĠPo": 4876,
      "ĠPut": 4877,
      "setStrict": 4878,
      "Ġdestroy": 4879,
      "curator": 4880,
      "<]><)><)><;><": 4881,
      "LocalTime": 4882,
      "DefaultOAuth": 4883,
      "RSA": 4884,
      "pirit": 4885,
      "getResponseContent": 4886,
      "ImmutableSet": 4887,
      "ThrowExceptionIf": 4888,
      "ĠArgument": 4889,
      "nament": 4890,
      "40": 4891,
      "66": 4892,
      "IZ": 4893,
      "ZX": 4894,
      "qs": 4895,
      "sort": 4896,
      "times": 4897,
      "two": 4898,
      "Ġatt": 4899,
      "ingService": 4900,
      "getContext": 4901,
      "getGraph": 4902,
      "Ġmultiple": 4903,
      "lobal": 4904,
      "resolve": 4905,
      "ournament": 4906,
      "READ": 4907,
      "NodeTypes": 4908,
      "ĠBlood": 4909,
      "ĠWr": 4910,
      "proxy": 4911,
      "Cluster": 4912,
      "ĠhttpRequest": 4913,
      "Signer": 4914,
      "Ġdealt": 4915,
      "graphId": 4916,
      "SIGNATURE": 4917,
      "ruct": 4918,
      "LogoutResponse": 4919,
      "details": 4920,
      "ĠshouldFailToParse": 4921,
      "<[><]": 4922,
      "IVE": 4923,
      "Ok": 4924,
      "SCOPE": 4925,
      "<(>\"\"<)><)><;><": 4926,
      "ector": 4927,
      "StringColumn": 4928,
      "Convert": 4929,
      "ries": 4930,
      "AuthnRequest": 4931,
      "TimeMillis": 4932,
      "Ġrest": 4933,
      "LocalDateTime": 4934,
      "ExecutorService": 4935,
      "Obj": 4936,
      "Application": 4937,
      "rtm": 4938,
      "xhtml": 4939,
      "estination": 4940,
      "ctx": 4941,
      "stage": 4942,
      "Ġbb": 4943,
      "imum": 4944,
      "ĠDragon": 4945,
      "Colors": 4946,
      "utils": 4947,
      "Upper": 4948,
      "ĠInet": 4949,
      "HostState": 4950,
      "equalTo": 4951,
      "Interface": 4952,
      "FieldValue": 4953,
      "Generate": 4954,
      "CounterCount": 4955,
      "MatcherAssert": 4956,
      "Supported": 4957,
      "Provide": 4958,
      "AGE": 4959,
      "FL": 4960,
      "OB": 4961,
      "ters": 4962,
      "getJob": 4963,
      "cho": 4964,
      "RED": 4965,
      "ResponseHandler": 4966,
      "make": 4967,
      "OrEqualTo": 4968,
      "findAttribute": 4969,
      "Internal": 4970,
      "inding": 4971,
      "Ġopen": 4972,
      "Ġidx": 4973,
      "Container": 4974,
      "Dispatcher": 4975,
      "Sync": 4976,
      "break": 4977,
      "DoesNot": 4978,
      "Mer": 4979,
      "QL": 4980,
      "ium": 4981,
      "lers": 4982,
      "getParent": 4983,
      "getNodes": 4984,
      "Ġtapped": 4985,
      "ĠSource": 4986,
      "Ġboth": 4987,
      "ĠRing": 4988,
      "EDSIT": 4989,
      "AccessMethod": 4990,
      "Ġchain": 4991,
      "AuthenticationHolderEntity": 4992,
      "getSub": 4993,
      "getSize": 4994,
      "appendCell": 4995,
      "PERSON": 4996,
      "ĠemptyList": 4997,
      "canAccessMethod": 4998,
      "SERVICE": 4999,
      "ĠciString": 5000,
      "LISTEDSIT": 5001,
      "LISTEDSITES": 5002,
      "Can": 5003,
      "Copy": 5004,
      "Craw": 5005,
      "Caller": 5006,
      "FY": 5007,
      "Lex": 5008,
      "fol": 5009,
      "iol": 5010,
      "ique": 5011,
      "mance": 5012,
      "ĠNot": 5013,
      "TestUtils": 5014,
      "odb": 5015,
      "layState": 5016,
      "Contact": 5017,
      "added": 5018,
      "ĠgetUser": 5019,
      "gration": 5020,
      "ĠhasSegments": 5021,
      "findExact": 5022,
      "running": 5023,
      "args": 5024,
      "artitionServer": 5025,
      "HankResponse": 5026,
      "lankUser": 5027,
      "BL": 5028,
      "DD": 5029,
      "Find": 5030,
      "MpImport": 5031,
      "Sources": 5032,
      "cumul": 5033,
      "yc": 5034,
      "getActions": 5035,
      "quires": 5036,
      "urly": 5037,
      "Changes": 5038,
      "Form": 5039,
      "Matching": 5040,
      "StateException": 5041,
      "ĠplayerC": 5042,
      "RepositoryConfiguration": 5043,
      "Selected": 5044,
      "encer": 5045,
      "rpslObjectDao": 5046,
      "marshall": 5047,
      "Ġredirect": 5048,
      "FromStringWith": 5049,
      "<--><--><->\\": 5050,
      "Mixin": 5051,
      "MBOL": 5052,
      "Nano": 5053,
      "OiJ": 5054,
      "fir": 5055,
      "len": 5056,
      "nmnt": 5057,
      "side": 5058,
      "<(><(><)>": 5059,
      "ante": 5060,
      "anization": 5061,
      "arante": 5062,
      "Ġ\".": 5063,
      "isStep": 5064,
      "tra": 5065,
      "triggers": 5066,
      "<(>\"</><": 5067,
      "Ġ13": 5068,
      "ĠSub": 5069,
      "ĠSacr": 5070,
      "ĠBlock": 5071,
      "ĠDestroy": 5072,
      "Ġline": 5073,
      "Ġcombat": 5074,
      "ĠHor": 5075,
      "</><@>": 5076,
      "notated": 5077,
      "refresh": 5078,
      "ĠRemotingException": 5079,
      "engine": 5080,
      "Wrong": 5081,
      "compile": 5082,
      "Parameterized": 5083,
      "Ġvis": 5084,
      "\"<)><)><)>.": 5085,
      "osite": 5086,
      "Month": 5087,
      "TextSearch": 5088,
      "Variables": 5089,
      "SYMBOL": 5090,
      "ĠLogoutRequest": 5091,
      "IRT": 5092,
      "COLUMNS": 5093,
      "arantee": 5094,
      "500": 5095,
      "98": 5096,
      "DF": 5097,
      "Pay": 5098,
      "Right": 5099,
      "VA": 5100,
      "descr": 5101,
      "ki": 5102,
      "timestamp": 5103,
      "Ġpass": 5104,
      "Ġsingle": 5105,
      "ĠAL": 5106,
      "Record": 5107,
      "ĠLiteral": 5108,
      "limit": 5109,
      "updatedObject": 5110,
      "{>\\\"": 5111,
      "Claims": 5112,
      "Plural": 5113,
      "<(>\"<[>": 5114,
      "BeanDescriptor": 5115,
      "WebArchive": 5116,
      "channelMock": 5117,
      "FunctionBuilder": 5118,
      "ixture": 5119,
      "ĠAuthoritativeResource": 5120,
      "101": 5121,
      "54": 5122,
      "Batch": 5123,
      "Mis": 5124,
      "Void": 5125,
      "bus": 5126,
      "div": 5127,
      "ko": 5128,
      "nstatus": 5129,
      "Ġstatus": 5130,
      "ename": 5131,
      "getParameters": 5132,
      "secret": 5133,
      "<(><)><[>": 5134,
      "addObject": 5135,
      "Ġbase": 5136,
      "Assign": 5137,
      "ĠMon": 5138,
      "Ġhe": 5139,
      "Configur": 5140,
      "ĠHe": 5141,
      "ĠĠĠĠĠĠĠĠĠĠĠĠĠĠĠ": 5142,
      "Statement": 5143,
      "ĠRpslObjectInfo": 5144,
      "Ġprodu": 5145,
      "Ġaddress": 5146,
      "Ġcontrols": 5147,
      "20880": 5148,
      "rake": 5149,
      "getStatusLine": 5150,
      "ĠRepositoryException": 5151,
      "Renderer": 5152,
      "Relative": 5153,
      "76": 5154,
      "EvaluationContext": 5155,
      "Known": 5156,
      "LAST": 5157,
      "QY": 5158,
      "Ret": 5159,
      "WI": 5160,
      "vis": 5161,
      "ĠConfiguration": 5162,
      "iler": 5163,
      "fined": 5164,
      "Ġinitial": 5165,
      "Assertions": 5166,
      "StepFunctionBuilder": 5167,
      "crumb": 5168,
      "ĠUP": 5169,
      "primaryType": 5170,
      "ready": 5171,
      "commonutil": 5172,
      "PEER": 5173,
      "Additional": 5174,
      "shrink": 5175,
      "netty": 5176,
      "Primary": 5177,
      "NamespaceUri": 5178,
      "execution": 5179,
      "numberColumn": 5180,
      "shrinkwrap": 5181,
      "90": 5182,
      "MD": 5183,
      "MEM": 5184,
      "Ops": 5185,
      "OVER": 5186,
      "buffer": 5187,
      "car": 5188,
      "csv": 5189,
      "gY": 5190,
      "ression": 5191,
      "Ġlogger": 5192,
      "rel": 5193,
      "reation": 5194,
      "ayHello": 5195,
      "container": 5196,
      "Ġbuf": 5197,
      "parator": 5198,
      "Ġreq": 5199,
      "RequestHandler": 5200,
      "Defn": 5201,
      "ignore": 5202,
      "Ġrule": 5203,
      "IsNull": 5204,
      "ildcard": 5205,
      "<]></>": 5206,
      "complet": 5207,
      "ABC": 5208,
      "llegalStateException": 5209,
      "MoreSpec": 5210,
      "Ġcosts": 5211,
      "Agent": 5212,
      "Exists": 5213,
      "plicit": 5214,
      "Ġenchanted": 5215,
      "BgNV": 5216,
      "RsMa": 5217,
      "'<)><)><;><": 5218,
      "70": 5219,
      "Body": 5220,
      "KN": 5221,
      "Master": 5222,
      "Optim": 5223,
      "dater": 5224,
      "mUUID": 5225,
      "night": 5226,
      "var": 5227,
      "Ġ<)><;><": 5228,
      "Ġcaptured": 5229,
      "Ġsorcery": 5230,
      "ĠSER": 5231,
      "ĠSql": 5232,
      "Ġduring": 5233,
      "ibility": 5234,
      "Protected": 5235,
      "ĠDis": 5236,
      "iteJobConfiguration": 5237,
      "authnRequest": 5238,
      "ConfigFile": 5239,
      "Ġstop": 5240,
      "Ġrange": 5241,
      "LIC": 5242,
      "Abilities": 5243,
      "singular": 5244,
      "LOW": 5245,
      "Ġdep": 5246,
      "2014": 5247,
      "Ġ2014": 5248,
      "ContentWithCredentials": 5249,
      "ĠAuthorization": 5250,
      "timeout": 5251,
      "ĠCondition": 5252,
      "ControlList": 5253,
      "Ġtimeout": 5254,
      "Completed": 5255,
      "elta": 5256,
      "pairwise": 5257,
      "dynamodb": 5258,
      "Cost": 5259,
      "DATE": 5260,
      "EF": 5261,
      "JS": 5262,
      "Jwt": 5263,
      "MB": 5264,
      "Pass": 5265,
      "WH": 5266,
      "round": 5267,
      "uv": 5268,
      "uuid": 5269,
      "ves": 5270,
      "Ġ<]>": 5271,
      "asc": 5272,
      "mpFile": 5273,
      "ilename": 5274,
      "adapt": 5275,
      "Ġsimple": 5276,
      "unchecked": 5277,
      "cluster": 5278,
      "Ġme": 5279,
      "ĠPGP": 5280,
      "Profiles": 5281,
      "Ġway": 5282,
      "reduce": 5283,
      "ElementDefinition": 5284,
      "Ġstack": 5285,
      "anyString": 5286,
      "StatusTrace": 5287,
      "sourceContext": 5288,
      "Ġenter": 5289,
      "ariables": 5290,
      "listener": 5291,
      "BinaryStore": 5292,
      "ĠGraphRow": 5293,
      "ĠAtomicBoolean": 5294,
      "NODES": 5295,
      "scribe": 5296,
      "Back": 5297,
      "IllegalArgumentException": 5298,
      "Permiss": 5299,
      "Pretty": 5300,
      "THAN": 5301,
      "body": 5302,
      "jackson": 5303,
      "na": 5304,
      "schematic": 5305,
      "tle": 5306,
      "west": 5307,
      "xs": 5308,
      "yy": 5309,
      "zi": 5310,
      "orator": 5311,
      "alk": 5312,
      "getExtensionLoader": 5313,
      "Ġsql": 5314,
      "reatures": 5315,
      "Stack": 5316,
      "Ġops": 5317,
      "Ġoptions": 5318,
      "ĠPA": 5319,
      "setFieldValue": 5320,
      "001": 5321,
      "ĠImp": 5322,
      "Ġrepo": 5323,
      "Identity": 5324,
      "ĠFirst": 5325,
      "TimeNano": 5326,
      "Ġ\"<--><--><->": 5327,
      "ĠNumber": 5328,
      "redential": 5329,
      "storeProperties": 5330,
      "php": 5331,
      "\\\\</>": 5332,
      "getLast": 5333,
      "FormatException": 5334,
      "QUEST": 5335,
      "SingleLogout": 5336,
      "Memnite": 5337,
      "Completion": 5338,
      "DVQQ": 5339,
      "ALLNODES": 5340,
      "MpImportParser": 5341,
      "dynamodbv": 5342,
      "SingleLogoutService": 5343,
      "BB": 5344,
      "GA": 5345,
      "IAL": 5346,
      "Net": 5347,
      "Turn": 5348,
      "ĠAction": 5349,
      "oles": 5350,
      "omb": 5351,
      "ithub": 5352,
      "ĠOUT": 5353,
      "elink": 5354,
      "profile": 5355,
      "rowCount": 5356,
      "ives": 5357,
      "LOntology": 5358,
      "2011": 5359,
      "currentTimeMillis": 5360,
      "Short": 5361,
      "AuthorizationServer": 5362,
      "irectedType": 5363,
      "ĠClientDetailsEntity": 5364,
      "ĠshouldBuildQueryWith": 5365,
      "iolation": 5366,
      "Me": 5367,
      "RID": 5368,
      "ailed": 5369,
      "cent": 5370,
      "dir": 5371,
      "fails": 5372,
      "github": 5373,
      "jav": 5374,
      "ring": 5375,
      "ĠKey": 5376,
      "atory": 5377,
      "arer": 5378,
      "<(>\"#<{>": 5379,
      "TestI": 5380,
      "Ġpl": 5381,
      "Expect": 5382,
      "expiration": 5383,
      "ĠisSql": 5384,
      "uman": 5385,
      "ĠSOURCE": 5386,
      "ĠSorcery": 5387,
      "ĠCloseableIterable": 5388,
      "Ġdet": 5389,
      "Ġremoved": 5390,
      "Idx": 5391,
      "extension": 5392,
      "Delay": 5393,
      "AccessKey": 5394,
      "AndGet": 5395,
      "JsonArray": 5396,
      "Super": 5397,
      "ĠChart": 5398,
      "subpath": 5399,
      "ĠDateTime": 5400,
      "namespace": 5401,
      "Adaptive": 5402,
      "methods": 5403,
      "IBILITY": 5404,
      "MonitoringEvent": 5405,
      "eserial": 5406,
      "FORM": 5407,
      "<(>_": 5408,
      ">\"<;><": 5409,
      "Aver": 5410,
      "Database": 5411,
      "Shared": 5412,
      "aiter": 5413,
      "ged": 5414,
      "ng": 5415,
      "ote": 5416,
      "alm": 5417,
      "that": 5418,
      "Ġ\"\"": 5419,
      "eds": 5420,
      "oll": 5421,
      "ToPlural": 5422,
      "ĠtestCard": 5423,
      "ĠtestNode": 5424,
      "ĠshouldProvide": 5425,
      "policy": 5426,
      "box": 5427,
      "ORY": 5428,
      "JobExecution": 5429,
      "getNameId": 5430,
      "Outer": 5431,
      "ĠUtilTest": 5432,
      "Mappings": 5433,
      "____": 5434,
      "Projection": 5435,
      "folk": 5436,
      "+><": 5437,
      "Ontology": 5438,
      "Self": 5439,
      "federation": 5440,
      "rough": 5441,
      "simple": 5442,
      "getState": 5443,
      "peat": 5444,
      "Expiration": 5445,
      "ury": 5446,
      "aves": 5447,
      "setWant": 5448,
      "Ġfingerpr": 5449,
      "LETE": 5450,
      "Ġreve": 5451,
      "ĠMaster": 5452,
      "Issuer": 5453,
      "EntityId": 5454,
      "Ġauthors": 5455,
      "ReflectUtils": 5456,
      "Threads": 5457,
      "beans": 5458,
      "ĠUpdateContext": 5459,
      "FACE": 5460,
      "WhitelistedSite": 5461,
      "InitialState": 5462,
      "Ġcolorless": 5463,
      "singularToPlural": 5464,
      "iCall": 5465,
      "rl": 5466,
      "task": 5467,
      "ĠToken": 5468,
      "ĠResource": 5469,
      "ascript": 5470,
      "alle": 5471,
      "leader": 5472,
      "getEntity": 5473,
      "Ġtask": 5474,
      "Ġtotal": 5475,
      "urge": 5476,
      "Ġschema": 5477,
      "undle": 5478,
      "ĠSk": 5479,
      "ĠSy": 5480,
      "avig": 5481,
      "ĠPh": 5482,
      "ableFuture": 5483,
      "ĠIs": 5484,
      "Ġext": 5485,
      "toURL": 5486,
      "ĠRS": 5487,
      "emon": 5488,
      "entical": 5489,
      "ĠJOIN": 5490,
      "\\\"<}>": 5491,
      "containsKey": 5492,
      "<(><)><)><)><)><;><": 5493,
      "TEX": 5494,
      "cryption": 5495,
      "moteAddress": 5496,
      "getFirstChild": 5497,
      "ĠALLOCATED": 5498,
      "RIDE": 5499,
      "allel": 5500,
      "Dubbo": 5501,
      "Denied": 5502,
      "Fr": 5503,
      "Fire": 5504,
      "Rpc": 5505,
      "cy": 5506,
      "reet": 5507,
      "exchange": 5508,
      "ĠAd": 5509,
      "persist": 5510,
      "Ġ14": 5511,
      "ĠPlayer": 5512,
      "paragraphs": 5513,
      "NTIAL": 5514,
      "ById": 5515,
      "Ġ\"<+>": 5516,
      "Ġprofile": 5517,
      "ĠinstanceOf": 5518,
      "FieldException": 5519,
      "<+><": 5520,
      "NodeTypeDefinition": 5521,
      "ĠresultsSet": 5522,
      "Granted": 5523,
      "ENG": 5524,
      "ĠServlet": 5525,
      "ĠRewriteTest": 5526,
      "Ġexecutor": 5527,
      "Ġusing": 5528,
      "ĠNoSuchFieldException": 5529,
      "Entities": 5530,
      "ACT": 5531,
      "Draw": 5532,
      "Damage": 5533,
      "DOMAIN": 5534,
      "Sm": 5535,
      "Timestamp": 5536,
      "dat": 5537,
      "kl": 5538,
      "<(>\"\"<)><;><": 5539,
      "Exp": 5540,
      "Ġbl": 5541,
      "NodeKey": 5542,
      "Ġjournal": 5543,
      "ailing": 5544,
      "ĠFunction": 5545,
      "Runnable": 5546,
      "AccessTokens": 5547,
      "UpdateContext": 5548,
      "Once": 5549,
      "OWN": 5550,
      "MPTY": 5551,
      "Negative": 5552,
      "JoinCondition": 5553,
      "getPort": 5554,
      "SegmentsList": 5555,
      "ĠExecutionException": 5556,
      "ĠAuthenticationHolderEntity": 5557,
      "SERVING": 5558,
      "OVERRIDE": 5559,
      "<]>.": 5560,
      "71": 5561,
      "CHA": 5562,
      "EC": 5563,
      "El": 5564,
      "IF": 5565,
      "Na": 5566,
      "aver": 5567,
      "bucket": 5568,
      "den": 5569,
      "operand": 5570,
      "zookeeper": 5571,
      "anit": 5572,
      "getMethod": 5573,
      "getColor": 5574,
      "Ġper": 5575,
      "ulate": 5576,
      "Ġthree": 5577,
      "ĠPerson": 5578,
      "Ġbuild": 5579,
      "Ġwere": 5580,
      "Ġcontain": 5581,
      "Encode": 5582,
      "ĠDrake": 5583,
      "ĠNikolche": 5584,
      "await": 5585,
      "versions": 5586,
      "HostName": 5587,
      "condition": 5588,
      "ĠCardNameAmount": 5589,
      "\\\",\\": 5590,
      "getByKey": 5591,
      "RefreshTokens": 5592,
      "azz": 5593,
      "ĠsetUpClass": 5594,
      "130": 5595,
      "NamespaceRegis": 5596,
      "Blue": 5597,
      "IME": 5598,
      "Ġrole": 5599,
      "ĠLocale": 5600,
      "ĉĉĉĠĠ": 5601,
      "ixtures": 5602,
      "RemoteFile": 5603,
      "Emul": 5604,
      "Ġmntner": 5605,
      "Ġuntap": 5606,
      "Configurer": 5607,
      "javascript": 5608,
      "Car": 5609,
      "JK": 5610,
      "Look": 5611,
      "PA": 5612,
      "UInt": 5613,
      "WITH": 5614,
      "XPath": 5615,
      "hs": 5616,
      "options": 5617,
      "space": 5618,
      "ross": 5619,
      "voke": 5620,
      "ura": 5621,
      "Standard": 5622,
      "ĠPretty": 5623,
      "AsBlock": 5624,
      "><)>'": 5625,
      "Ġcommand": 5626,
      "ippo": 5627,
      "PropertyValue": 5628,
      "HERE": 5629,
      "ampleResult": 5630,
      "ĠcontainsInAnyOrder": 5631,
      "Ġupkeep": 5632,
      "statement": 5633,
      "abcdef": 5634,
      "ĠJobInstance": 5635,
      "Ġblocked": 5636,
      "ĠrootNode": 5637,
      "SPON": 5638,
      "Ġprior": 5639,
      "tinu": 5640,
      "ĠSqlTokenizer": 5641,
      "89": 5642,
      "Callback": 5643,
      "Green": 5644,
      "LY": 5645,
      "QUE": 5646,
      "XPATH": 5647,
      "memb": 5648,
      "oHybrid": 5649,
      "orn": 5650,
      "orp": 5651,
      "icHandle": 5652,
      "getUser": 5653,
      "getIRI": 5654,
      "Ġtoughness": 5655,
      "rip": 5656,
      "Ġoauth": 5657,
      "Ġfailed": 5658,
      "Ġ<(>\"": 5659,
      "Ġjust": 5660,
      "protocol": 5661,
      "Ġchoice": 5662,
      "hasSize": 5663,
      "anywhere": 5664,
      "Position": 5665,
      "region": 5666,
      "LOCATION": 5667,
      "ĠExpected": 5668,
      "ValidatorTest": 5669,
      "Ġlands": 5670,
      "invalids": 5671,
      "AmazonWebServiceRequest": 5672,
      "Bounds": 5673,
      "Ġsucceed": 5674,
      "nsCheckRequest": 5675,
      "WISE": 5676,
      "GrantedAuthority": 5677,
      "Cnt": 5678,
      "Correctly": 5679,
      "Hill": 5680,
      "WHERE": 5681,
      "ij": 5682,
      "nov": 5683,
      "une": 5684,
      "esw": 5685,
      "Ġ\"<}>": 5686,
      "edges": 5687,
      "segment": 5688,
      "jected": 5689,
      "claw": 5690,
      "TypeName": 5691,
      "Ġdang": 5692,
      "Ġax": 5693,
      "Trusted": 5694,
      "Env": 5695,
      "ĠRpc": 5696,
      "ĠStringUtils": 5697,
      "ĠFl": 5698,
      "ĠFoo": 5699,
      "email": 5700,
      "mockHost": 5701,
      "ĠEach": 5702,
      "Ġdiscard": 5703,
      "<]><[>": 5704,
      "Ġ<(><!>": 5705,
      "Component": 5706,
      "acity": 5707,
      "ĠtableB": 5708,
      "render": 5709,
      "123456789": 5710,
      "ĠInter": 5711,
      "ApprovedSite": 5712,
      "PasswordAuthenticationToken": 5713,
      "slave": 5714,
      "remental": 5715,
      "Faces": 5716,
      "ĠDomainVersion": 5717,
      "oxed": 5718,
      "TOKEN": 5719,
      "pingThreadGroup": 5720,
      "Ġinetnum": 5721,
      "&><": 5722,
      "Rating": 5723,
      "Wall": 5724,
      "WOR": 5725,
      "cate": 5726,
      "cArr": 5727,
      "oz": 5728,
      "ĠName": 5729,
      "Ġ__": 5730,
      "Ġeditor": 5731,
      "erException": 5732,
      "enchant": 5733,
      "getLocal": 5734,
      "TestTypes": 5735,
      "Ġsw": 5736,
      "Ġsomething": 5737,
      "Thing": 5738,
      "Throws": 5739,
      "vertex": 5740,
      "ĠAWS": 5741,
      "Ġ1234": 5742,
      "setClientId": 5743,
      "ersist": 5744,
      "Ġblack": 5745,
      "ima": 5746,
      "ĠOut": 5747,
      "REQUEST": 5748,
      "putProperty": 5749,
      "NullPo": 5750,
      "CEP": 5751,
      "</><%>'": 5752,
      "expectedEx": 5753,
      "Gets": 5754,
      "UpdateDao": 5755,
      "Codec": 5756,
      "Ġauthenticate": 5757,
      "Ġmethods": 5758,
      "samlData": 5759,
      "objectMessages": 5760,
      "ĠPropertyValue": 5761,
      "><(><)><{><": 5762,
      "ĠViewElementDefinition": 5763,
      "vious": 5764,
      "supportedOperationException": 5765,
      "Lookup": 5766,
      "SPONSE": 5767,
      "<:>\"": 5768,
      ".\"<": 5769,
      ".\",<": 5770,
      "75": 5771,
      "<%><": 5772,
      "created": 5773,
      "gt": 5774,
      "Ġes": 5775,
      "isRsMa": 5776,
      "getOAuth": 5777,
      "Ġcustom": 5778,
      "Ġ<}><)>": 5779,
      "arden": 5780,
      "addParameter": 5781,
      "Input": 5782,
      "Ġ1999": 5783,
      "Assigned": 5784,
      "ĠID": 5785,
      "ĠMa": 5786,
      "rome": 5787,
      "ĠHAS": 5788,
      "StateMachine": 5789,
      "Ġwrong": 5790,
      "netname": 5791,
      "Ġwritten": 5792,
      "Failover": 5793,
      "ĠAddGraph": 5794,
      "mybat": 5795,
      "090": 5796,
      "Scan": 5797,
      "ORGAN": 5798,
      "AAAA": 5799,
      "Ġgenerated": 5800,
      "Ġattacks": 5801,
      "metadataStr": 5802,
      "WaitUntil": 5803,
      "PrivateKey": 5804,
      "ĠSERV": 5805,
      "Ġdangdang": 5806,
      "mybatis": 5807,
      "60": 5808,
      "Sort": 5809,
      "cd": 5810,
      "ĠEnd": 5811,
      "ingleton": 5812,
      "getInt": 5813,
      "sect": 5814,
      "self": 5815,
      "choice": 5816,
      "aba": 5817,
      "ĠPartitionServer": 5818,
      "loader": 5819,
      "Enhancer": 5820,
      "Ġhad": 5821,
      "ResponseObject": 5822,
      "Cloud": 5823,
      "UtilTest": 5824,
      "PRESS": 5825,
      "jobFacade": 5826,
      "AccessTokenRequest": 5827,
      "Ġhaste": 5828,
      "validateSign": 5829,
      "Ġ2017": 5830,
      "sume": 5831,
      "ĠProperties": 5832,
      "OWE": 5833,
      "ADD": 5834,
      "argument": 5835,
      "DOC": 5836,
      "ĠtearDownClass": 5837,
      "cluded": 5838,
      "ĠForce": 5839,
      "atibleType": 5840,
      "ClaimsSet": 5841,
      "AU": 5842,
      "Duration": 5843,
      "IO": 5844,
      "JA": 5845,
      "Put": 5846,
      "TIES": 5847,
      "ae": 5848,
      "junction": 5849,
      "sampler": 5850,
      "scheduler": 5851,
      "Ġjunit": 5852,
      "ĠEquip": 5853,
      "Ġqs": 5854,
      "alib": 5855,
      "itch": 5856,
      "getVersion": 5857,
      "getOperand": 5858,
      "getOWL": 5859,
      ".<*>": 5860,
      "InIndex": 5861,
      "setUp": 5862,
      "testNode": 5863,
      "ĠBr": 5864,
      "ooks": 5865,
      "ClassLoader": 5866,
      "Ġran": 5867,
      "ĠGh": 5868,
      "SystemScope": 5869,
      "JsonNode": 5870,
      "ArgumentCaptor": 5871,
      "Fields": 5872,
      "Ġconfiguration": 5873,
      "ĠresponseHandler": 5874,
      "mark": 5875,
      "Ġ<}>,<": 5876,
      "ĠStage": 5877,
      "stateMachine": 5878,
      "connection": 5879,
      "<(>\"<{>\\\"": 5880,
      "SelectorName": 5881,
      "GrantTypes": 5882,
      "Ġextractor": 5883,
      "FullTextSearch": 5884,
      "BigDecimal": 5885,
      "ĠChartSettings": 5886,
      "Category": 5887,
      "DW": 5888,
      "HER": 5889,
      "cnd": 5890,
      "jw": 5891,
      "kq": 5892,
      "icates": 5893,
      "Ġ<}><)><)><;><": 5894,
      "Ġtk": 5895,
      "Ġsaml": 5896,
      "igr": 5897,
      "Consider": 5898,
      "amel": 5899,
      "ĠSdk": 5900,
      "setScope": 5901,
      "Ġflying": 5902,
      "ONG": 5903,
      "WithTimeout": 5904,
      "Ġhapp": 5905,
      "ĠshouldHave": 5906,
      "ĠTP": 5907,
      "GetAllElementsHandlerTest": 5908,
      "Columns": 5909,
      "ĠORDER": 5910,
      "RegCenter": 5911,
      "OperationChain": 5912,
      "TRUE": 5913,
      "RedirectUri": 5914,
      "ImportElement": 5915,
      "ShouldNot": 5916,
      "Ġaccept": 5917,
      "Ġ193": 5918,
      "CREATURE": 5919,
      "ĠComparison": 5920,
      "ĠFederatedStore": 5921,
      "Restricted": 5922,
      "ĠAppro": 5923,
      "ĠValueFormatException": 5924,
      "xsd": 5925,
      "Based": 5926,
      "fetch": 5927,
      "fixture": 5928,
      "ias": 5929,
      "ram": 5930,
      "Ġable": 5931,
      "its": 5932,
      "<(>\"</></>": 5933,
      "urst": 5934,
      "Ġsystem": 5935,
      "unstruct": 5936,
      "ability": 5937,
      "ĠSec": 5938,
      "ĠBE": 5939,
      "endary": 5940,
      "Granter": 5941,
      "ermit": 5942,
      "antic": 5943,
      "ASS": 5944,
      "ĠTIMESTAMP": 5945,
      "Notation": 5946,
      "max": 5947,
      "ĠTesting": 5948,
      "ĠInMemory": 5949,
      "getSp": 5950,
      "Ġpermission": 5951,
      "TableModel": 5952,
      "loadXML": 5953,
      "getIdent": 5954,
      "ĠINTER": 5955,
      "listedSite": 5956,
      "MappingException": 5957,
      "Ġpermanents": 5958,
      "ĠLocalDateTime": 5959,
      "playerC": 5960,
      "ĠClientConfiguration": 5961,
      "PROPERTIES": 5962,
      "JobNodeExisted": 5963,
      "ĠTODO": 5964,
      "ĠImmutableList": 5965,
      "opter": 5966,
      "ĠHostState": 5967,
      "guarantee": 5968,
      "addAsWeb": 5969,
      "unstructured": 5970,
      "<;>\",": 5971,
      "69": 5972,
      "ANY": 5973,
      "EMPL": 5974,
      "EMPTY": 5975,
      "Finder": 5976,
      "NING": 5977,
      "Sum": 5978,
      "SING": 5979,
      "VENT": 5980,
      "page": 5981,
      "Ġerr": 5982,
      "Ġwhere": 5983,
      "icles": 5984,
      "isJobNodeExisted": 5985,
      "addAll": 5986,
      "rie": 5987,
      "ĠCapture": 5988,
      "derived": 5989,
      "setAuthentication": 5990,
      "Ġbasic": 5991,
      "ITE": 5992,
      "ĠgetElements": 5993,
      "Bearer": 5994,
      "OAuthConsumer": 5995,
      "ARRAY": 5996,
      "Refresh": 5997,
      "Compression": 5998,
      "Templates": 5999,
      "Meta": 6000,
      "plus": 6001,
      "jsonunit": 6002,
      "javacrumb": 6003,
      "activateManaAbility": 6004,
      "ADER": 6005,
      "repare": 6006,
      "DIR": 6007,
      "Capture": 6008,
      "ĠLocalDate": 6009,
      "CoreConfiguration": 6010,
      "resultsSet": 6011,
      "Observer": 6012,
      "ĠResponseObject": 6013,
      "RouteEn": 6014,
      "FederatedStore": 6015,
      "Translator": 6016,
      "Html": 6017,
      "eswalker": 6018,
      "ĠSERVICE": 6019,
      "javacrumbs": 6020,
      "<:>\"<)><;><": 6021,
      "Between": 6022,
      "Folder": 6023,
      "GU": 6024,
      "You": 6025,
      "nio": 6026,
      "tag": 6027,
      "|><": 6028,
      "orary": 6029,
      "eta": 6030,
      "isNormalized": 6031,
      "mploy": 6032,
      "idge": 6033,
      "Ġcould": 6034,
      "Ġthey": 6035,
      "Ġrapi": 6036,
      "ĠGu": 6037,
      "Ġcompare": 6038,
      "DELETE": 6039,
      "</><*><-><": 6040,
      "LOG": 6041,
      "UpdateMessages": 6042,
      "nodeName": 6043,
      "Positive": 6044,
      "SimpleJob": 6045,
      "ĠAnnotation": 6046,
      "ĠToUInt": 6047,
      "Ġ#<%>": 6048,
      "Extractors": 6049,
      "processedWith": 6050,
      "ĠImmutableMap": 6051,
      "~><~><~><~><~><~><~><~><": 6052,
      "CriteriaUsing": 6053,
      "partition": 6054,
      "MODIFY": 6055,
      "semantic": 6056,
      "ĠshouldBuildQueryWithCriteriaUsing": 6057,
      "CHANT": 6058,
      "mployee": 6059,
      "semanticweb": 6060,
      "85": 6061,
      "CID": 6062,
      "Dragon": 6063,
      "Phyrexian": 6064,
      "Sorted": 6065,
      "VID": 6066,
      "option": 6067,
      "sa": 6068,
      "Ġhttps": 6069,
      "Ġapply": 6070,
      "><->": 6071,
      "Ġ<]>,": 6072,
      "icNotation": 6073,
      "arning": 6074,
      "lease": 6075,
      "edBy": 6076,
      "getQuery": 6077,
      "Ġthem": 6078,
      "InSc": 6079,
      "Ġdid": 6080,
      "Ġfl": 6081,
      "ĠBl": 6082,
      "Ġrepro": 6083,
      "ĠMage": 6084,
      "ĠshouldRe": 6085,
      "ĠFOO": 6086,
      "CES": 6087,
      "ĠĠĠĠĠĠĠĠĠĠĠĠĠ": 6088,
      "ĠNULL": 6089,
      "</><{>": 6090,
      "ireMock": 6091,
      "ISATION": 6092,
      "Ġentries": 6093,
      "BaseTest": 6094,
      "Shut": 6095,
      "ChannelWithTimeout": 6096,
      "230": 6097,
      "ĠAbstractGraphRow": 6098,
      "isValidOrgType": 6099,
      "Ġnonland": 6100,
      "Supplied": 6101,
      "savedSites": 6102,
      "ĠJavaFileObjects": 6103,
      "Ġrefresh": 6104,
      "Module": 6105,
      "cluding": 6106,
      "owlapi": 6107,
      "GenerateStrategy": 6108,
      "InScient": 6109,
      "Ġreproduce": 6110,
      "ChannelWithTimeouts": 6111,
      "*>,": 6112,
      "++><": 6113,
      "Acl": 6114,
      "Bron": 6115,
      "Flow": 6116,
      "ILE": 6117,
      "Milli": 6118,
      "OLD": 6119,
      "PreparedUpdate": 6120,
      "aas": 6121,
      "bid": 6122,
      "nnic": 6123,
      "ral": 6124,
      "ĠExtensionLoader": 6125,
      "getDeployment": 6126,
      "ĠAl": 6127,
      "olf": 6128,
      "Ġoverride": 6129,
      "ĠSm": 6130,
      "Ġaut": 6131,
      "imbus": 6132,
      "ĠIp": 6133,
      "MockMvc": 6134,
      "TokenFactory": 6135,
      "prote": 6136,
      "ĠStringReader": 6137,
      "ByName": 6138,
      "readValue": 6139,
      "ignored": 6140,
      "JobStatusTrace": 6141,
      "GraphPanelChart": 6142,
      "clientDetails": 6143,
      "Ġcomplet": 6144,
      "getSource": 6145,
      "success": 6146,
      "eleted": 6147,
      "Ġcountered": 6148,
      "JavaVersion": 6149,
      "JavaFileObject": 6150,
      "queue": 6151,
      "Ġwhite": 6152,
      "zkRegCenter": 6153,
      "Marsh": 6154,
      "Ġpairwise": 6155,
      "PEERING": 6156,
      "ORGANISATION": 6157,
      "alibaba": 6158,
      "<=>'": 6159,
      "Baz": 6160,
      "Called": 6161,
      "Dg": 6162,
      "Jdbc": 6163,
      "NET": 6164,
      "Named": 6165,
      "Sp": 6166,
      "basic": 6167,
      "egration": 6168,
      "arm": 6169,
      "arge": 6170,
      "getProperties": 6171,
      "getEncoded": 6172,
      "getAncestor": 6173,
      "aging": 6174,
      "Ġbar": 6175,
      "stats": 6176,
      "RECTED": 6177,
      "testable": 6178,
      "ĠDIS": 6179,
      "ĠDraw": 6180,
      "Chat": 6181,
      "ClientConfiguration": 6182,
      "ĠNet": 6183,
      "Place": 6184,
      "HandlerContext": 6185,
      "JsonObject": 6186,
      "*><*><*><*><*><*><*><*><*><*><*><*><": 6187,
      "Detail": 6188,
      "ErrorCode": 6189,
      "ThreadLocal": 6190,
      "Ġclients": 6191,
      "ĠDead": 6192,
      "WebDriver": 6193,
      "isecond": 6194,
      "RLF": 6195,
      "ugin": 6196,
      "ĠGetAllElements": 6197,
      "Ġleaves": 6198,
      "Locked": 6199,
      "compareTo": 6200,
      "AWSCredentials": 6201,
      "NoMoreTokens": 6202,
      "sramp": 6203,
      "*><*><*><*><*><*><*><*><*><*><*><*><*><*><*><*><*><*><*><*><*><*><*><*><*><*><*><*><*><*><*><*><*><*><*><*><*><*><*><*><*><*><*><*><*><*><*><*><*><*><*><*><*><*><*><*><*><*><*><*><*><*><*><*><": 6204,
      "Ġ<&&><": 6205,
      "ĠWebArchive": 6206,
      "Ġ\"..\",": 6207,
      "writeValueAsString": 6208,
      "AbsolutePath": 6209,
      "\"<)><)>,<": 6210,
      "Equival": 6211,
      "ĠArgumentCaptor": 6212,
      "*><*><*><*><*><*><*><*><*><*><*><*><*><*><*><*><*><*><*><*><*><*><*><*><*><*><*><*><*><*><*><*><*><*><*><*><*><*><*><*><*><*><*><*><*><*><*><*><*><*><*><*><*><*><*><*><*><*><*><*><*><*><*><*><*><*><*><*><*><*><*><*><*><*><*><*><": 6213,
      "Csv": 6214,
      "Files": 6215,
      "GO": 6216,
      "Global": 6217,
      "LA": 6218,
      "Present": 6219,
      "journal": 6220,
      "ĠContentWithCredentials": 6221,
      "Ġ<?><": 6222,
      "getText": 6223,
      "stub": 6224,
      "Ġcur": 6225,
      "quoted": 6226,
      "Ġpattern": 6227,
      "istog": 6228,
      "ĠSp": 6229,
      "ĠSTR": 6230,
      "ldra": 6231,
      "ITS": 6232,
      "imeMessage": 6233,
      "Ġlength": 6234,
      "Qual": 6235,
      "createOAuth": 6236,
      "Ġparam": 6237,
      "IDLE": 6238,
      "StoreException": 6239,
      "Ġresol": 6240,
      "rowth": 6241,
      "HostCommand": 6242,
      "axiom": 6243,
      "OTHER": 6244,
      "2009": 6245,
      "ĠDef": 6246,
      "AuthorizationCode": 6247,
      "ClientDetailsService": 6248,
      "counters": 6249,
      "supports": 6250,
      "Organization": 6251,
      "getMax": 6252,
      "ĠExecutionContext": 6253,
      "Characters": 6254,
      "Counterspell": 6255,
      "ĠCrown": 6256,
      "HostNameUtils": 6257,
      "ĠsucceedState": 6258,
      "istogram": 6259,
      "ldrazi": 6260,
      "<]>\"<)><;><": 6261,
      "AW": 6262,
      "But": 6263,
      "Email": 6264,
      "Io": 6265,
      "MC": 6266,
      "MR": 6267,
      "Nec": 6268,
      "NULL": 6269,
      "Pe": 6270,
      "VAR": 6271,
      "aces": 6272,
      "capture": 6273,
      "gments": 6274,
      "nNode": 6275,
      "norg": 6276,
      "Ġgreater": 6277,
      "Ġderived": 6278,
      "asing": 6279,
      "getJobNode": 6280,
      "idx": 6281,
      "Ġpart": 6282,
      "Ġsend": 6283,
      "andReturn": 6284,
      "setState": 6285,
      "iming": 6286,
      "<}><)><": 6287,
      "ĠIllegalStateException": 6288,
      "NotSame": 6289,
      "monitor": 6290,
      "TimeZone": 6291,
      "configJson": 6292,
      "ParseException": 6293,
      "Transport": 6294,
      "joinNode": 6295,
      "ductor": 6296,
      "getTypeElement": 6297,
      "<++><;><": 6298,
      "samlResponseEncoded": 6299,
      "ĠRunnable": 6300,
      "ĠRepositoryConfiguration": 6301,
      "Pairing": 6302,
      "ĠAwsHostNameUtils": 6303,
      "incrementAndGet": 6304,
      "ColorsDispatcher": 6305,
      "manceUtils": 6306,
      "ĠUPD": 6307,
      "StackTrace": 6308,
      "68": 6309,
      "94": 6310,
      "Binding": 6311,
      "Correct": 6312,
      "Factories": 6313,
      "MediaType": 6314,
      "blankUser": 6315,
      "efined": 6316,
      "fill": 6317,
      "ump": 6318,
      "yr": 6319,
      "Ġz": 6320,
      "orer": 6321,
      "enge": 6322,
      "arator": 6323,
      "ited": 6324,
      "mpDir": 6325,
      "getAttribute": 6326,
      "getGraphs": 6327,
      "getCards": 6328,
      "Ġport": 6329,
      "Ġthose": 6330,
      "ĠPmd": 6331,
      "Asset": 6332,
      "ops": 6333,
      "Ġwait": 6334,
      "WithH": 6335,
      "SEQUE": 6336,
      "Off": 6337,
      "Ġdistribution": 6338,
      "ĠJW": 6339,
      "LID": 6340,
      "Validity": 6341,
      "ported": 6342,
      "EventMock": 6343,
      "StatusCode": 6344,
      "OnOr": 6345,
      "IndexOf": 6346,
      "plorer": 6347,
      "ategories": 6348,
      "Successful": 6349,
      "ĠParse": 6350,
      "SubType": 6351,
      "Throwable": 6352,
      "RegionProvider": 6353,
      "cumentation": 6354,
      "SomeActor": 6355,
      "ĠFederatedAccess": 6356,
      "Days": 6357,
      "]></><": 6358,
      "Population": 6359,
      "<[><%><]></><": 6360,
      "ĠcurVal": 6361,
      "74": 6362,
      "Ali": 6363,
      "Cred": 6364,
      "DL": 6365,
      "Delete": 6366,
      "Gson": 6367,
      "Jackson": 6368,
      "Uuid": 6369,
      "dna": 6370,
      "jwt": 6371,
      "warn": 6372,
      "getUrl": 6373,
      "ilters": 6374,
      "Ġcorrectly": 6375,
      "StringWith": 6376,
      "cloud": 6377,
      "Conditions": 6378,
      "Equal": 6379,
      "library": 6380,
      "ĠSpirit": 6381,
      "TypeElement": 6382,
      "Ġacl": 6383,
      "ĠtoString": 6384,
      "redicate": 6385,
      "ailMessage": 6386,
      "ElementUtil": 6387,
      "OfThe": 6388,
      "paths": 6389,
      "Unknown": 6390,
      "tokenRepository": 6391,
      "reflect": 6392,
      "RIR": 6393,
      "ordinal": 6394,
      "UpdateInfo": 6395,
      "RepositoryWith": 6396,
      "DomainGroup": 6397,
      "ĠclientAuthentication": 6398,
      "userName": 6399,
      "SameNode": 6400,
      "ponentInScient": 6401,
      "StorageEngine": 6402,
      "PrimaryType": 6403,
      "mbed": 6404,
      "Blocking": 6405,
      "lastic": 6406,
      "ructor": 6407,
      "<(><)><)>,<": 6408,
      "soToken": 6409,
      "Ġpolicy": 6410,
      "AUTHOR": 6411,
      "ĠLinked": 6412,
      "getExponentInScient": 6413,
      "SdkMetrics": 6414,
      "AGGREGATED": 6415,
      "cumulo": 6416,
      "WORD": 6417,
      "ĠSTRING": 6418,
      "Bus": 6419,
      "Die": 6420,
      "Given": 6421,
      "Mage": 6422,
      "Spring": 6423,
      "cn": 6424,
      "desc": 6425,
      "Ġiterator": 6426,
      "enum": 6427,
      "getDefault": 6428,
      "getRefreshToken": 6429,
      "style": 6430,
      "Ġpermit": 6431,
      "Ġmessages": 6432,
      "ĠCustom": 6433,
      "ĠCRLF": 6434,
      "ĠPUR": 6435,
      "ĠPART": 6436,
      "TypeManager": 6437,
      "ĠOn": 6438,
      "testMana": 6439,
      "ERCHANT": 6440,
      "ITNE": 6441,
      "ĠMERCHANT": 6442,
      "ĠFITNE": 6443,
      "ĠTORT": 6444,
      "parseDynamicOperand": 6445,
      "NotEquals": 6446,
      "ĠEVENT": 6447,
      "Ġrights": 6448,
      "Quoted": 6449,
      "QueryMessages": 6450,
      "StateWith": 6451,
      "JobCoreConfiguration": 6452,
      "endsWith": 6453,
      "ISING": 6454,
      "GraphIds": 6455,
      "GraphLibrary": 6456,
      "Streams": 6457,
      "ĠCONTRA": 6458,
      "ĠASSIGNED": 6459,
      "ĠReported": 6460,
      "POSE": 6461,
      "bean": 6462,
      "ICUL": 6463,
      "ĠLIABLE": 6464,
      "Shuff": 6465,
      "CONT": 6466,
      "OWLOntology": 6467,
      "LOCAL": 6468,
      "Ġtriggers": 6469,
      "ĠINCLUDING": 6470,
      "Ġgraphs": 6471,
      "ĠWHETHER": 6472,
      "Formatter": 6473,
      "JSONObject": 6474,
      "ĠEnchanted": 6475,
      "ĠEXPRESS": 6476,
      "getBoxed": 6477,
      "ĠPROVID": 6478,
      "Ġloses": 6479,
      "ĠARISING": 6480,
      "emoService": 6481,
      "Edges": 6482,
      "ĠDAMAGES": 6483,
      "ĠOTHERWISE": 6484,
      "ymous": 6485,
      "ĠSHALL": 6486,
      "undleInfo": 6487,
      "Bronze": 6488,
      "protege": 6489,
      "ValiditySeconds": 6490,
      "ĠPURPOSE": 6491,
      "ĠPARTICUL": 6492,
      "ĠMERCHANTABILITY": 6493,
      "ĠFITNESS": 6494,
      "ĠCONTRACT": 6495,
      "ĠPROVIDED": 6496,
      "ĠPARTICULAR": 6497,
      "<{><": 6498,
      "Ak": 6499,
      "Dat": 6500,
      "ILD": 6501,
      "Mj": 6502,
      "Man": 6503,
      "Ste": 6504,
      "Zookeeper": 6505,
      "demo": 6506,
      "gs": 6507,
      "he": 6508,
      "routes": 6509,
      "wice": 6510,
      "attr": 6511,
      "asType": 6512,
      "getAvailable": 6513,
      "Ġcop": 6514,
      "Expir": 6515,
      "igest": 6516,
      "ĠSU": 6517,
      "ĠStep": 6518,
      "ĠSUB": 6519,
      "ĠCert": 6520,
      "Ġnor": 6521,
      "ĠtestBuild": 6522,
      "ĠBlack": 6523,
      "ĠRan": 6524,
      "ĠgetTable": 6525,
      "ĠNames": 6526,
      "curly": 6527,
      "ALLOC": 6528,
      "Ġ40": 6529,
      "Ġprop": 6530,
      "Ġreserved": 6531,
      "JsonResult": 6532,
      "requests": 6533,
      "2013": 6534,
      "ParserHelper": 6535,
      "Ġclone": 6536,
      "NumberOf": 6537,
      "Registration": 6538,
      "ĠshouldNotCreate": 6539,
      "Colored": 6540,
      "getDestination": 6541,
      "AutoGenerated": 6542,
      "ĠPropertyType": 6543,
      "ImmutableList": 6544,
      "destruct": 6545,
      "TRANS": 6546,
      "ĠTemplates": 6547,
      "InetAddress": 6548,
      "><[><]><[><]": 6549,
      "getShort": 6550,
      "Attack": 6551,
      "Package": 6552,
      "allowed": 6553,
      "ĠsharedPath": 6554,
      "<)>\"<)><;><": 6555,
      "73": 6556,
      "AG": 6557,
      "Da": 6558,
      "Employee": 6559,
      "Journal": 6560,
      "ME": 6561,
      "Pr": 6562,
      "RT": 6563,
      "SION": 6564,
      "Used": 6565,
      "ZS": 6566,
      "ging": 6567,
      "oh": 6568,
      "pay": 6569,
      "alc": 6570,
      "allocated": 6571,
      "ism": 6572,
      "getAs": 6573,
      "getAuthentication": 6574,
      "ublish": 6575,
      "chron": 6576,
      "Ġsr": 6577,
      "also": 6578,
      "ĠisValid": 6579,
      "peri": 6580,
      "ĠSAML": 6581,
      "Authenticated": 6582,
      "Paren": 6583,
      "Paragraph": 6584,
      "toJson": 6585,
      "ĠDATA": 6586,
      "ĠDIRECT": 6587,
      "poch": 6588,
      "Deflated": 6589,
      "Ġ\"<[>": 6590,
      "ClassName": 6591,
      "MockitoAnnotations": 6592,
      "atted": 6593,
      "AccessControl": 6594,
      "JobExecutor": 6595,
      "ALSE": 6596,
      "Ġchanges": 6597,
      "tokenStore": 6598,
      "ivation": 6599,
      "AccessTokenConverter": 6600,
      "Ġagain": 6601,
      "Hosts": 6602,
      "words": 6603,
      "javax": 6604,
      "phy": 6605,
      "elements": 6606,
      "GRANT": 6607,
      "Ġregion": 6608,
      "plice": 6609,
      "Serialize": 6610,
      "Serialization": 6611,
      "playerD": 6612,
      "JcrNode": 6613,
      "getMin": 6614,
      "itoringEvent": 6615,
      "ByteArrayOutputStream": 6616,
      "DVI": 6617,
      "ĠOrg": 6618,
      "isDone": 6619,
      "authorizationRequest": 6620,
      "Ġ<||><": 6621,
      "Incre": 6622,
      "VALID": 6623,
      "ĠSERVICES": 6624,
      "Shuffling": 6625,
      "</>\"<)><;><": 6626,
      "<}>.": 6627,
      "AIM": 6628,
      "BQ": 6629,
      "Cueball": 6630,
      "Multimap": 6631,
      "NamedSelector": 6632,
      "ZI": 6633,
      "ZW": 6634,
      "ba": 6635,
      "browser": 6636,
      "ght": 6637,
      "hbG": 6638,
      "preparedUpdate": 6639,
      "tion": 6640,
      "Ġam": 6641,
      "Ġalso": 6642,
      "req": 6643,
      "eded": 6644,
      "licit": 6645,
      "\"<;>": 6646,
      "ĠAct": 6647,
      "Ġms": 6648,
      "ĠSubject": 6649,
      "lows": 6650,
      "problems": 6651,
      "TimeMilli": 6652,
      "ĠNamedSelector": 6653,
      "IsOk": 6654,
      "DataSource": 6655,
      "moth": 6656,
      "AndVal": 6657,
      "HOST": 6658,
      "Executable": 6659,
      "Filtering": 6660,
      "sso": 6661,
      "\\\",\"<": 6662,
      "ENTAL": 6663,
      "rincipals": 6664,
      "CLAIM": 6665,
      "ĠTools": 6666,
      "getClassName": 6667,
      "JSONArray": 6668,
      "AmazonServiceException": 6669,
      "Least": 6670,
      "AncestorOf": 6671,
      "/></></></><": 6672,
      "ternalNode": 6673,
      "ĠDynamoDBMapperTableModel": 6674,
      "okup": 6675,
      "ĠAutoKey": 6676,
      "referenceable": 6677,
      "Ġretain": 6678,
      "InitShuffling": 6679,
      "skipInitShuffling": 6680,
      "RemoteFileOps": 6681,
      "ĠInternet": 6682,
      "ordinalize": 6683,
      "destructible": 6684,
      "CLAIMED": 6685,
      "<:>\\": 6686,
      "65": 6687,
      "CURE": 6688,
      "CloseableIterable": 6689,
      "FITS": 6690,
      "Giant": 6691,
      "Nested": 6692,
      "Ramp": 6693,
      "RUP": 6694,
      "UND": 6695,
      "fe": 6696,
      "full": 6697,
      "faster": 6698,
      "messages": 6699,
      "rse": 6700,
      "vn": 6701,
      "Ġ.<": 6702,
      "ĠStr": 6703,
      "ĠIND": 6704,
      "Ġ<)><": 6705,
      "eral": 6706,
      "atic": 6707,
      "thes": 6708,
      "referenced": 6709,
      "ane": 6710,
      "isJsonArray": 6711,
      "oub": 6712,
      "ought": 6713,
      "Testing": 6714,
      "Ġprom": 6715,
      "oda": 6716,
      "Ġthough": 6717,
      "Explicit": 6718,
      "uel": 6719,
      "ĠARE": 6720,
      "ĠADVI": 6721,
      "ĠLo": 6722,
      "ĠLOSS": 6723,
      "Ġmater": 6724,
      "Conductor": 6725,
      "addRule": 6726,
      "ĠSable": 6727,
      "ĠSTRI": 6728,
      "ĠSPECI": 6729,
      "ĠCERT": 6730,
      "ĠCAU": 6731,
      "ĠPOSS": 6732,
      "ĠtestIn": 6733,
      "upper": 6734,
      "<}></>": 6735,
      "ĠIF": 6736,
      "ĠBUS": 6737,
      "ĠWAY": 6738,
      "ITUTE": 6739,
      "ĠDave": 6740,
      "Ġunconvert": 6741,
      "\\\"\\": 6742,
      "STITUTE": 6743,
      "parseRegion": 6744,
      "ĠgetEdge": 6745,
      "monoHybrid": 6746,
      "ĠHOWE": 6747,
      "ĠED": 6748,
      "ĠEVE": 6749,
      "ĠNEG": 6750,
      "LIGE": 6751,
      "Ġbeing": 6752,
      "Unique": 6753,
      "RuntimeException": 6754,
      "ĠGOO": 6755,
      "ĠCONSEQUE": 6756,
      "jobCaller": 6757,
      "rowd": 6758,
      "345": 6759,
      "Composite": 6760,
      "ĠcreateResponse": 6761,
      "Ġsearch": 6762,
      "ĠMockConnector": 6763,
      "Ġhandle": 6764,
      "ciOiJ": 6765,
      "ĠINCID": 6766,
      "PowerMockito": 6767,
      "CREATED": 6768,
      "ĠTHEORY": 6769,
      "expectMessage": 6770,
      "AutoValue": 6771,
      "CHILD": 6772,
      "ĠEXEMPL": 6773,
      "ĠPROCURE": 6774,
      "ĠPROFITS": 6775,
      "ĠBaseClientDetails": 6776,
      "ĠRedistribution": 6777,
      "Acceptor": 6778,
      "Ġallowed": 6779,
      "Character": 6780,
      "INESS": 6781,
      "quirement": 6782,
      "eyJhbG": 6783,
      "ĠNeither": 6784,
      "IZATION": 6785,
      "Ġproducts": 6786,
      "BgNVB": 6787,
      "JobExecutionEvent": 6788,
      "iCallAttempt": 6789,
      "ĠSyer": 6790,
      "ĠForcemage": 6791,
      "ĠINTERRUP": 6792,
      "ĠDISCLAIMED": 6793,
      "<[><%><]></><%>'": 6794,
      "Ġpermitted": 6795,
      "ĠSUCH": 6796,
      "ĠSUBSTITUTE": 6797,
      "fasterxml": 6798,
      "ĠINDIRECT": 6799,
      "Ġpromote": 6800,
      "ĠADVISED": 6801,
      "Ġmaterials": 6802,
      "ĠSTRICT": 6803,
      "ĠSPECIAL": 6804,
      "ĠCAUSED": 6805,
      "ĠPOSSIBILITY": 6806,
      "ĠBUSINESS": 6807,
      "ĠHOWEVER": 6808,
      "ĠEVEN": 6809,
      "ĠNEGLIGE": 6810,
      "ĠGOODS": 6811,
      "ĠCONSEQUENTIAL": 6812,
      "ĠINCIDENTAL": 6813,
      "ĠEXEMPLARY": 6814,
      "ĠPROCUREMENT": 6815,
      "eyJhbGciOiJ": 6816,
      "ĠINTERRUPTION": 6817,
      "ĠNEGLIGENCE": 6818,
      "FALSE": 6819,
      "HDL": 6820,
      "Iface": 6821,
      "Leader": 6822,
      "PW": 6823,
      "Slice": 6824,
      "VATE": 6825,
      "gress": 6826,
      "mV": 6827,
      "vVal": 6828,
      "Ġlose": 6829,
      "encrypted": 6830,
      "getAccessToken": 6831,
      "getZk": 6832,
      "ouch": 6833,
      "unknown": 6834,
      "ĠSun": 6835,
      "converter": 6836,
      "ĠCnd": 6837,
      "Props": 6838,
      "Produ": 6839,
      "LEntity": 6840,
      "ather": 6841,
      "Encryption": 6842,
      "ĠUrl": 6843,
      "Ġ\"<@>": 6844,
      "configService": 6845,
      "LISH": 6846,
      "Stateless": 6847,
      "UtilsTest": 6848,
      "Angel": 6849,
      "ConfigurationBuilder": 6850,
      "DEV": 6851,
      "getSchema": 6852,
      "RIVATE": 6853,
      "ffix": 6854,
      "ĠauthnRequest": 6855,
      "findInIndex": 6856,
      "samlp": 6857,
      "OutOf": 6858,
      "ICATE": 6859,
      "Ġnothing": 6860,
      "<)><)><)><)><;><": 6861,
      "NodeTypeTemplate": 6862,
      "generated": 6863,
      "Processing": 6864,
      "JavaBeanDescriptor": 6865,
      "VERSION": 6866,
      "Flags": 6867,
      "savedScopes": 6868,
      "ĠOperationChain": 6869,
      "ĠCountDownLatch": 6870,
      "TappedCount": 6871,
      "playLand": 6872,
      "ĠentityTable": 6873,
      "Visibility": 6874,
      "INFO": 6875,
      "Closed": 6876,
      "MODIFIED": 6877,
      "txnNode": 6878,
      "Lexicon": 6879,
      "federationManager": 6880,
      "ENGLISH": 6881,
      "IFICATE": 6882,
      "CEPTION": 6883,
      "Equivalence": 6884,
      "ĠCERTIFICATE": 6885,
      "'\"<)><)><;><": 6886,
      "10000": 6887,
      "Hour": 6888,
      "Hierarchy": 6889,
      "Label": 6890,
      "Main": 6891,
      "Nikolche": 6892,
      "Pa": 6893,
      "Pending": 6894,
      "SQL": 6895,
      "bad": 6896,
      "delta": 6897,
      "history": 6898,
      "slice": 6899,
      "Ġserial": 6900,
      "ering": 6901,
      "atype": 6902,
      "reason": 6903,
      "getMessages": 6904,
      "<(>\"..</>": 6905,
      "tection": 6906,
      "Ġprefix": 6907,
      "changes": 6908,
      "Ġsb": 6909,
      "ExceptionHandler": 6910,
      "oter": 6911,
      "andExpect": 6912,
      "TypeNames": 6913,
      "ĠtestRe": 6914,
      "ĠtestWith": 6915,
      "AsStream": 6916,
      "Ġ21": 6917,
      "psample": 6918,
      "NTIC": 6919,
      "ĠStringColumn": 6920,
      "PathAssertion": 6921,
      "Ġrg": 6922,
      "deflated": 6923,
      "HENTIC": 6924,
      "plac": 6925,
      "CLASS": 6926,
      "ĠAssertion": 6927,
      "AUTHENTIC": 6928,
      "ĠGetAllElementsHandlerTest": 6929,
      "CacheService": 6930,
      "jspsample": 6931,
      "Depre": 6932,
      "DIRECTED": 6933,
      "Serialis": 6934,
      "ranch": 6935,
      "ByteArrayInputStream": 6936,
      "Ġenchantment": 6937,
      "Ġencoder": 6938,
      "FromStringContaining": 6939,
      "SocketAddress": 6940,
      "ĠLinkedList": 6941,
      "getResourceAsStream": 6942,
      "OBJECT": 6943,
      "ProtectedResourceDetails": 6944,
      "Backoff": 6945,
      "Permissions": 6946,
      "ombie": 6947,
      "abcdefgh": 6948,
      "member": 6949,
      "<)>\"<)><)><;><": 6950,
      "'\"<)><;><": 6951,
      ",'": 6952,
      "Buf": 6953,
      "FED": 6954,
      "Kind": 6955,
      "Lion": 6956,
      "OC": 6957,
      "Old": 6958,
      "QE": 6959,
      "TIME": 6960,
      "UNS": 6961,
      "east": 6962,
      "nsource": 6963,
      "oen": 6964,
      "qr": 6965,
      "sTest": 6966,
      "top": 6967,
      "vile": 6968,
      "Ġ,": 6969,
      "Ġitem": 6970,
      "><}>": 6971,
      "isA": 6972,
      "ision": 6973,
      "lex": 6974,
      "mporary": 6975,
      "trace": 6976,
      "getEnd": 6977,
      "Ġsince": 6978,
      "ĠLiteJobConfiguration": 6979,
      "Ġ123": 6980,
      "ĠSession": 6981,
      "continu": 6982,
      "setExpiration": 6983,
      "ĠtestAdd": 6984,
      "AtOr": 6985,
      "irt": 6986,
      "MAP": 6987,
      "queryString": 6988,
      "Ġ32": 6989,
      "createProjection": 6990,
      "ĠGame": 6991,
      "ĠGoblin": 6992,
      "location": 6993,
      "Ġmocked": 6994,
      "HostDomain": 6995,
      "SignerType": 6996,
      "regCenter": 6997,
      "ĠtokenRequest": 6998,
      "HashKey": 6999,
      "Ġview": 7000,
      "beat": 7001,
      "ACCES": 7002,
      "Heart": 7003,
      "PartitionRemoteFileOps": 7004,
      "Serializer": 7005,
      "Ġshuff": 7006,
      "ĠJsonReader": 7007,
      "ĉĉĉĠĠĠĠĠĠ": 7008,
      "STOKE": 7009,
      "DynamicOperandFromStringContaining": 7010,
      "ĠLogoutResponse": 7011,
      "Ġprevent": 7012,
      "scription": 7013,
      "initialise": 7014,
      "getExpiration": 7015,
      "encoded": 7016,
      "getChildCount": 7017,
      "Ġwords": 7018,
      "ĠpackedTime": 7019,
      "Cloudsh": 7020,
      "setUpRing": 7021,
      "addAsWebResource": 7022,
      "oenix": 7023,
      "ACCESSTOKE": 7024,
      "300": 7025,
      "79": 7026,
      ":><[>": 7027,
      "DemoService": 7028,
      "Elastic": 7029,
      "HH": 7030,
      "IString": 7031,
      "NG": 7032,
      "Owner": 7033,
      "PG": 7034,
      "PR": 7035,
      "Tags": 7036,
      "iore": 7037,
      "sy": 7038,
      "wl": 7039,
      "zA": 7040,
      "Ġapp": 7041,
      "ĠlogoutResponse": 7042,
      "Ġ<--><--><->": 7043,
      "orDie": 7044,
      "ised": 7045,
      "getIndex": 7046,
      "templates": 7047,
      "licko": 7048,
      "Ġterm": 7049,
      "Ġmov": 7050,
      "Ġ10000": 7051,
      "ĠoAuth": 7052,
      "ĠSw": 7053,
      "ĠCIString": 7054,
      "setUser": 7055,
      "Ġdelete": 7056,
      "ĠtestTo": 7057,
      "paragraph": 7058,
      "ĠWor": 7059,
      "Ġcontact": 7060,
      "toByteArray": 7061,
      "ĠgetJsonResult": 7062,
      "createObject": 7063,
      "ĠJdbc": 7064,
      "Ġactivate": 7065,
      "ĠhasItem": 7066,
      "Ġgrant": 7067,
      "HashCode": 7068,
      "2000": 7069,
      "Endian": 7070,
      "Shock": 7071,
      "Ġcluster": 7072,
      "Transition": 7073,
      "mailbox": 7074,
      "AUTO": 7075,
      "Ġregis": 7076,
      "SignatureMethod": 7077,
      "shardingService": 7078,
      "ĠPropertyOptions": 7079,
      "initialize": 7080,
      "lves": 7081,
      "Duplicate": 7082,
      "ĠJoinType": 7083,
      "LOWER": 7084,
      "Ġreveal": 7085,
      "ĠPartitionServerAddress": 7086,
      "ĠAutoKeyAndVal": 7087,
      "ĠCndTokenizer": 7088,
      "AUTHENTICATION": 7089,
      "Serialisable": 7090,
      "lickoRating": 7091,
      "84": 7092,
      "93": 7093,
      "<|": 7094,
      "NGE": 7095,
      "OK": 7096,
      "Script": 7097,
      "cf": 7098,
      "ded": 7099,
      "hh": 7100,
      "qa": 7101,
      "system": 7102,
      "uy": 7103,
      "Ġar": 7104,
      "ĠThat": 7105,
      "Ġ<%>": 7106,
      "ality": 7107,
      "itable": 7108,
      "getVal": 7109,
      "getAuthor": 7110,
      "Ġcorrect": 7111,
      "Explorer": 7112,
      "reath": 7113,
      "igh": 7114,
      "amework": 7115,
      "setVal": 7116,
      "setDefault": 7117,
      "Ġdumb": 7118,
      "Ġdescriptor": 7119,
      "LESS": 7120,
      "Ġoff": 7121,
      "RESH": 7122,
      "lecting": 7123,
      "NodeName": 7124,
      "Ġrecord": 7125,
      "ĠWalker": 7126,
      "Enc": 7127,
      "ĠData": 7128,
      "items": 7129,
      "ĠgetVal": 7130,
      "ĠgetDeployment": 7131,
      "Ġ\"<-->": 7132,
      "RANGE": 7133,
      "keycert": 7134,
      "\\\"<:><[>": 7135,
      "ĠsetVal": 7136,
      "ĠInputStream": 7137,
      "HEADER": 7138,
      "SSO": 7139,
      "Ġaddition": 7140,
      "Ġsee": 7141,
      "Ġclaims": 7142,
      "Ġnoxx": 7143,
      "removeFirst": 7144,
      "ĠXML": 7145,
      "<)><)><)><": 7146,
      "indexOf": 7147,
      "TERED": 7148,
      "ĠUsername": 7149,
      "ĠĠĠĠĠĠĠĠĠĠĠĠĠĠĠĠĠĠĠĠĠĠĠĠĠĠĠĠĠĠĠĠ": 7150,
      "DateTimeProvider": 7151,
      "getClassLoader": 7152,
      "Adj": 7153,
      "3333": 7154,
      "Accumulo": 7155,
      "ĠsignAlgorithm": 7156,
      "ĠBasicTokenizer": 7157,
      "savedClients": 7158,
      "Ġpaying": 7159,
      "ĠEXPECTED": 7160,
      "IpInterval": 7161,
      "ĠreadValue": 7162,
      "ĠdateTime": 7163,
      "getRequestURL": 7164,
      "FILTERED": 7165,
      "Ġtriggered": 7166,
      "Appender": 7167,
      "Aggregation": 7168,
      "lvish": 7169,
      "REFRESH": 7170,
      "grantTypes": 7171,
      "AGGREGATION": 7172,
      "findFirstLessSpec": 7173,
      "ĠBlockEvent": 7174,
      "iCallAttemptMonitoringEvent": 7175,
      "<)>\"": 7176,
      "'<": 7177,
      "MET": 7178,
      "Nj": 7179,
      "Times": 7180,
      "XY": 7181,
      "ZC": 7182,
      "cer": 7183,
      "descriptor": 7184,
      "iO": 7185,
      "ior": 7186,
      "ĠRegex": 7187,
      "<(><*>,": 7188,
      "iced": 7189,
      "getElement": 7190,
      "getTypes": 7191,
      "rog": 7192,
      "changed": 7193,
      "Strings": 7194,
      "clus": 7195,
      "Removed": 7196,
      "Received": 7197,
      "Requirement": 7198,
      "addMixin": 7199,
      "ObjectMapper": 7200,
      "ĠPl": 7201,
      "setToken": 7202,
      "setValue": 7203,
      "ToBe": 7204,
      "Ġdr": 7205,
      "Ġday": 7206,
      "ĠtestCreate": 7207,
      "00000": 7208,
      "RETR": 7209,
      "Auths": 7210,
      "AuthMethod": 7211,
      "Ġrel": 7212,
      "uilt": 7213,
      "Ġconsumer": 7214,
      "Ġhybrid": 7215,
      "ĠField": 7216,
      "ElementEquals": 7217,
      "packed": 7218,
      "KeyWrapper": 7219,
      "eek": 7220,
      "About": 7221,
      "nameid": 7222,
      "getSign": 7223,
      "Ġ50": 7224,
      "ĠUnit": 7225,
      "Comparator": 7226,
      "runtime": 7227,
      "ChildNode": 7228,
      "ĠProxy": 7229,
      "Ġconfigure": 7230,
      "Connections": 7231,
      "SERTION": 7232,
      "ĠobjectMessages": 7233,
      "Mapped": 7234,
      "dump": 7235,
      "Implement": 7236,
      "Decorator": 7237,
      "EXCEPTION": 7238,
      "CounterType": 7239,
      "servletContext": 7240,
      "ShardingContexts": 7241,
      "ĠOWNER": 7242,
      "ĠprevVal": 7243,
      "ApplicationContext": 7244,
      "bindings": 7245,
      "getSharding": 7246,
      "ĠReflectUtils": 7247,
      "TotalCount": 7248,
      "Ġstopwatch": 7249,
      "Averages": 7250,
      "renderer": 7251,
      "romeDriver": 7252,
      "JobStatusTraceEvent": 7253,
      "ĠdumbClient": 7254,
      "<]>\"<)><)><;><": 7255,
      "Dyn": 7256,
      "Epoch": 7257,
      "MIL": 7258,
      "RY": 7259,
      "XN": 7260,
      "pha": 7261,
      "rd": 7262,
      "rules": 7263,
      "way": 7264,
      "xpected": 7265,
      "Ġesc": 7266,
      "ets": 7267,
      "getDate": 7268,
      "oding": 7269,
      "chang": 7270,
      "exp": 7271,
      "Ġiss": 7272,
      "Ġexpiration": 7273,
      "toStream": 7274,
      "ĠRO": 7275,
      "MAC": 7276,
      "STAT": 7277,
      "amples": 7278,
      "ether": 7279,
      "ĠHuman": 7280,
      "ĠĠĠĠĠĠĠĠĠĠĠĠĠĠ": 7281,
      "Classes": 7282,
      "Upstream": 7283,
      "Ġstorage": 7284,
      "awn": 7285,
      "organ": 7286,
      "StaticOperand": 7287,
      "boot": 7288,
      "containsAxiom": 7289,
      "Adding": 7290,
      "jobScheduleController": 7291,
      "foobar": 7292,
      "anyObject": 7293,
      "UpdateContainer": 7294,
      "irectory": 7295,
      "ĠProject": 7296,
      "ĠAsc": 7297,
      "FieldModel": 7298,
      "Whenever": 7299,
      "Ġxpath": 7300,
      "getPropertyName": 7301,
      "Ġstatement": 7302,
      "Ġalready": 7303,
      "Approved": 7304,
      "ontu": 7305,
      "ĠBasicPath": 7306,
      "Open": 7307,
      "aaa": 7308,
      "Numeric": 7309,
      "TOKENS": 7310,
      "parseLiteralValue": 7311,
      "Ġscopes": 7312,
      "Directory": 7313,
      "ournamentPlayer": 7314,
      "ĠPhoenix": 7315,
      "ĠExpectedException": 7316,
      "ĠEDGE": 7317,
      "MILLI": 7318,
      "Battlefield": 7319,
      "Branch": 7320,
      "CAS": 7321,
      "Curly": 7322,
      "JCR": 7323,
      "Nrtm": 7324,
      "Win": 7325,
      "Wildcard": 7326,
      "Year": 7327,
      "cat": 7328,
      "cated": 7329,
      "coun": 7330,
      "dumm": 7331,
      "gw": 7332,
      "oal": 7333,
      "simp": 7334,
      "Ġavailable": 7335,
      "atis": 7336,
      "env": 7337,
      "getBoolean": 7338,
      "getRegion": 7339,
      "adm": 7340,
      "ading": 7341,
      "ĠAnd": 7342,
      "ĠSocket": 7343,
      "setClient": 7344,
      "ĠtestB": 7345,
      "izz": 7346,
      "TokenRequest": 7347,
      "Atomic": 7348,
      "Ġheaders": 7349,
      "Ġgreen": 7350,
      "pow": 7351,
      "ĠEC": 7352,
      "Upgr": 7353,
      "ĠNow": 7354,
      "Ġround": 7355,
      "ĠViolation": 7356,
      "AccessException": 7357,
      "collection": 7358,
      "JobInstance": 7359,
      "DateFormat": 7360,
      "OrNull": 7361,
      "OrCreate": 7362,
      "Locale": 7363,
      "ĠObjectMapper": 7364,
      "Ġtargets": 7365,
      "ĠtokenStore": 7366,
      "UrlMapping": 7367,
      "phone": 7368,
      "someTable": 7369,
      "ĠemptySet": 7370,
      "SomeChat": 7371,
      "JobNodeIf": 7372,
      "shouldRe": 7373,
      "ĠMetric": 7374,
      "Predicates": 7375,
      "ĠAddressBuilder": 7376,
      "manage": 7377,
      "UCCESS": 7378,
      "getSubtype": 7379,
      "BLACK": 7380,
      "Retries": 7381,
      "AdditionalIn": 7382,
      "Ġdeployment": 7383,
      "NetUtils": 7384,
      "ĠSteppingThreadGroup": 7385,
      "Parenthes": 7386,
      "ĠUsernamePasswordAuthenticationToken": 7387,
      "87": 7388,
      "Codes": 7389,
      "NONE": 7390,
      "Ph": 7391,
      "Sacr": 7392,
      "kip": 7393,
      "nimbus": 7394,
      "sample": 7395,
      "split": 7396,
      "sayHello": 7397,
      "tt": 7398,
      "uc": 7399,
      "uer": 7400,
      "Ġip": 7401,
      "Ġadapt": 7402,
      "Ġedges": 7403,
      "only": 7404,
      "onymous": 7405,
      "getServer": 7406,
      "getManaSymbol": 7407,
      "apesh": 7408,
      "Ġsha": 7409,
      "addElements": 7410,
      "ottom": 7411,
      "ĠPr": 7412,
      "lookup": 7413,
      "Resources": 7414,
      "ĠOne": 7415,
      "oreply": 7416,
      "thenThrow": 7417,
      "ĠHank": 7418,
      "ByClientId": 7419,
      "Ġ\"<&>": 7420,
      "maker": 7421,
      "Under": 7422,
      "StoreUser": 7423,
      "AccessTokenProvider": 7424,
      "ilvercoatLion": 7425,
      "Executors": 7426,
      "oauthException": 7427,
      "Ġplayers": 7428,
      "BaseClientDetails": 7429,
      "ILS": 7430,
      "HolderRepository": 7431,
      "Ġcannot": 7432,
      "SubClass": 7433,
      "agram": 7434,
      "OrderBy": 7435,
      "ĉĉĉĉĉĉĉĉ": 7436,
      "ĠHttpRequest": 7437,
      "Memo": 7438,
      "UBLE": 7439,
      "SampleGenerator": 7440,
      "RewriteTest": 7441,
      "SecurityException": 7442,
      "ĠjoinNode": 7443,
      "ĠcallCnt": 7444,
      "Append": 7445,
      "ĠAutoValue": 7446,
      "Ġsuccess": 7447,
      "Ġ<||>": 7448,
      "mockedClient": 7449,
      "mnop": 7450,
      "getDeclaredField": 7451,
      "ParameterizedPatternParser": 7452,
      "reationDate": 7453,
      "Ġdetails": 7454,
      "klmnop": 7455,
      "ijklmnop": 7456,
      "ĠsrcArr": 7457,
      "ExplorerDriver": 7458,
      "Ġescplan": 7459,
      "nimbusds": 7460,
      "MI": 7461,
      "MQ": 7462,
      "math": 7463,
      "morgan": 7464,
      "native": 7465,
      "Ġwhois": 7466,
      "serials": 7467,
      "ances": 7468,
      "tros": 7469,
      "getCount": 7470,
      "getUsername": 7471,
      "aya": 7472,
      "stuv": 7473,
      "pection": 7474,
      "Expr": 7475,
      "lesaml": 7476,
      "ĠSequ": 7477,
      "INTER": 7478,
      "TypeMirror": 7479,
      "setResponse": 7480,
      "Tools": 7481,
      "ĠtestParse": 7482,
      "Ġfour": 7483,
      "Ġinit": 7484,
      "ĠOverride": 7485,
      "Trailing": 7486,
      "ĠrelayState": 7487,
      "ĠWe": 7488,
      "come": 7489,
      "ĠshouldCorrectly": 7490,
      "ContextService": 7491,
      "Ġ<{>\\": 7492,
      "createPar": 7493,
      "Ġparsed": 7494,
      "FactoryTest": 7495,
      "anguages": 7496,
      "mains": 7497,
      "Pojo": 7498,
      "LocalFile": 7499,
      "SSL": 7500,
      "Ġdeal": 7501,
      "FilterTest": 7502,
      "username": 7503,
      "ĠallNodes": 7504,
      "children": 7505,
      "ĠupdatedObject": 7506,
      "ĠQueryString": 7507,
      "osen": 7508,
      "TEMP": 7509,
      "<++><)><;><": 7510,
      "RedirectUris": 7511,
      "Thrown": 7512,
      "Players": 7513,
      "ernalThreadLocal": 7514,
      "ĠShoal": 7515,
      "ĠshardingContexts": 7516,
      "shardingContexts": 7517,
      "ExpectedValue": 7518,
      "exceptions": 7519,
      "Left": 7520,
      "ĠrefreshToken": 7521,
      "merge": 7522,
      "viation": 7523,
      "ĠDynamoDBMapperFieldModel": 7524,
      "OUTPUT": 7525,
      "ipeline": 7526,
      "Ġ\"..\"<)><)><;><": 7527,
      "MEMBER": 7528,
      "WHITE": 7529,
      "LockedNode": 7530,
      "WithHooks": 7531,
      "qrstuv": 7532,
      "simplesaml": 7533,
      "ijklmnopqrstuv": 7534,
      "ijklmnopqrstuvw": 7535,
      "Esc": 7536,
      "SO": 7537,
      "Scheduler": 7538,
      "WireMock": 7539,
      "ZE": 7540,
      "dG": 7541,
      "gre": 7542,
      "headers": 7543,
      "joda": 7544,
      "qG": 7545,
      "sb": 7546,
      "sIn": 7547,
      "script": 7548,
      "Ġassign": 7549,
      "ital": 7550,
      "itter": 7551,
      "getLong": 7552,
      "getMapping": 7553,
      "sequ": 7554,
      "Ġclean": 7555,
      "Ġcandidates": 7556,
      "TestClass": 7557,
      "odedIn": 7558,
      "addEquivalence": 7559,
      "ota": 7560,
      "ots": 7561,
      "andatory": 7562,
      "ĠMake": 7563,
      "ĠshouldConsider": 7564,
      "ira": 7565,
      "usk": 7566,
      "Clause": 7567,
      "ideon": 7568,
      "Ġont": 7569,
      "Ġ\"<*>": 7570,
      "ĠresultMap": 7571,
      "GetElements": 7572,
      "Annotated": 7573,
      "ALT": 7574,
      "<(><)><)><;>": 7575,
      "ĠGrowth": 7576,
      "Ġproblems": 7577,
      "Original": 7578,
      "102": 7579,
      "ĠrequestURL": 7580,
      "Ġabuse": 7581,
      "Heap": 7582,
      "Reduce": 7583,
      "ency": 7584,
      "Operator": 7585,
      "ĠqueryString": 7586,
      "ĠrpslObjectInfo": 7587,
      "ĠBasicDocument": 7588,
      "existent": 7589,
      "logoutRequestStr": 7590,
      "ĠValidationMessages": 7591,
      "assets": 7592,
      "==><==><==><==><==><==><==><==><==><==><==><==><==><==><==><==><": 7593,
      "ĠdeckList": 7594,
      "ThreadPoolExecutor": 7595,
      "encerPathExpression": 7596,
      "ĠsqlSession": 7597,
      "ippoSettings": 7598,
      "igration": 7599,
      "ĠNamespace": 7600,
      "RETRY": 7601,
      "addEquivalenceGroup": 7602,
      "</>.</>": 7603,
      "43": 7604,
      "429": 7605,
      ">\\\"": 7606,
      "Cached": 7607,
      "DAY": 7608,
      "Elvish": 7609,
      "Mind": 7610,
      "PAST": 7611,
      "Sn": 7612,
      "UG": 7613,
      "Vs": 7614,
      "fMon": 7615,
      "light": 7616,
      "mal": 7617,
      "zI": 7618,
      "Ġ\\\"<": 7619,
      "Ġrow": 7620,
      "alias": 7621,
      "icle": 7622,
      "isLessThan": 7623,
      "getLogger": 7624,
      "getProtocol": 7625,
      "expression": 7626,
      "utes": 7627,
      "StringUtil": 7628,
      "Ġmask": 7629,
      "Concurrent": 7630,
      "ained": 7631,
      "finition": 7632,
      "Respon": 7633,
      "parameter": 7634,
      "ĠBeta": 7635,
      "LDERS": 7636,
      "ĠMD": 7637,
      "ĠMer": 7638,
      "ĠshouldBe": 7639,
      "ĠgetClass": 7640,
      "ackage": 7641,
      "Dev": 7642,
      "ĠHello": 7643,
      "HttpMethod": 7644,
      "ĠRpslObjectUpdateInfo": 7645,
      "workspace": 7646,
      "ĠGn": 7647,
      "DEF": 7648,
      "HOLDERS": 7649,
      "ports": 7650,
      "hasRole": 7651,
      "findR": 7652,
      "IGIN": 7653,
      "acent": 7654,
      "><[><]>.<": 7655,
      "ACHE": 7656,
      "ReferenceValue": 7657,
      "NUMBER": 7658,
      "getCause": 7659,
      "CLARE": 7660,
      "ĠEncrypted": 7661,
      "ĠParagraph": 7662,
      "CacheFile": 7663,
      "UPD": 7664,
      "decodedIn": 7665,
      "BinaryValue": 7666,
      "EXPORT": 7667,
      "Linked": 7668,
      "registerNodeTypes": 7669,
      "AmazonClientException": 7670,
      "EncodingException": 7671,
      "IsNotValid": 7672,
      "DayOf": 7673,
      "\\\"<:><{>\\\"": 7674,
      "CLIENTS": 7675,
      "ĠSignature": 7676,
      "SYSTEMSCOPE": 7677,
      "Ġexisting": 7678,
      "ĠInetAddress": 7679,
      "ĠAuthorizationServer": 7680,
      "allelState": 7681,
      "AsBlockRange": 7682,
      "iseconds": 7683,
      "ĠParseException": 7684,
      "GRANTS": 7685,
      "Increasing": 7686,
      "ACCESSTOKENS": 7687,
      "AUTHENTICATIONHOLDERS": 7688,
      "Adjacent": 7689,
      "REFRESHTOKENS": 7690,
      "BLACKLISTEDSITES": 7691,
      "WHITELISTEDSITES": 7692,
      "getMappingById": 7693,
      "decodedInflated": 7694,
      "SYSTEMSCOPES": 7695,
      "<]>\",": 7696,
      "212": 7697,
      "512": 7698,
      "Descendant": 7699,
      "GB": 7700,
      "Keeper": 7701,
      "Ranges": 7702,
      "SUCCESS": 7703,
      "between": 7704,
      "cap": 7705,
      "called": 7706,
      "uk": 7707,
      "uction": 7708,
      "wire": 7709,
      "yota": 7710,
      "Ġignored": 7711,
      "ares": 7712,
      "isBlue": 7713,
      "getStream": 7714,
      "getView": 7715,
      "getWant": 7716,
      "tel": 7717,
      "Ġsaved": 7718,
      "ĠAUT": 7719,
      "ĠAura": 7720,
      "abs": 7721,
      "setJson": 7722,
      "Toyota": 7723,
      "Ġinvoker": 7724,
      "ĠBig": 7725,
      "ĠBiom": 7726,
      "ĠRow": 7727,
      "ĠMar": 7728,
      "ĠStringUtil": 7729,
      "MapFactory": 7730,
      "Collector": 7731,
      "romancer": 7732,
      "ocument": 7733,
      "validSegmentsList": 7734,
      "ForAttribute": 7735,
      "Handlers": 7736,
      "createFrom": 7737,
      "QueryParameter": 7738,
      "Ġbean": 7739,
      "ixed": 7740,
      "Ġproxy": 7741,
      "AllLessSpec": 7742,
      "DECLARE": 7743,
      "authorize": 7744,
      "ĠexpectedResults": 7745,
      "SSAGE": 7746,
      "Ġ<[>\"": 7747,
      "EmptyString": 7748,
      "Ġcasts": 7749,
      "OutType": 7750,
      "ACY": 7751,
      "\\\",\"": 7752,
      "ExecutionContext": 7753,
      "Partitions": 7754,
      "RangeKey": 7755,
      "SiteRepository": 7756,
      "Commander": 7757,
      "Existing": 7758,
      "Ġchildren": 7759,
      "registerNamespace": 7760,
      "UBLIC": 7761,
      "CharSequence": 7762,
      "src": 7763,
      "ĠValidationException": 7764,
      "TraitRequirement": 7765,
      "PartitionServerThread": 7766,
      "ĠByteArrayOutputStream": 7767,
      "keywords": 7768,
      "JMeterUtils": 7769,
      "Attach": 7770,
      "AddGraphHandler": 7771,
      "bla": 7772,
      "Ġconnection": 7773,
      "Ġattached": 7774,
      "ycle": 7775,
      "firmation": 7776,
      "authnRequestStr": 7777,
      "pairwiseClient": 7778,
      "wiremock": 7779,
      "72": 7780,
      ">\",<": 7781,
      "Dry": 7782,
      "Doub": 7783,
      "IMP": 7784,
      "Like": 7785,
      "MG": 7786,
      "MULT": 7787,
      "Pgp": 7788,
      "XSD": 7789,
      "function": 7790,
      "ud": 7791,
      "ĠTrue": 7792,
      "><&>": 7793,
      "include": 7794,
      "three": 7795,
      "icast": 7796,
      "aries": 7797,
      "getService": 7798,
      "getDomain": 7799,
      "getVertex": 7800,
      "outer": 7801,
      "sts": 7802,
      "<(>\"_": 7803,
      "amorph": 7804,
      "never": 7805,
      "Ġtap": 7806,
      "Express": 7807,
      "igil": 7808,
      "ĠLand": 7809,
      "addAttribute": 7810,
      "Style": 7811,
      "lim": 7812,
      "ToPay": 7813,
      "ĠtestNo": 7814,
      "ĠtestLoad": 7815,
      "aily": 7816,
      "Ġliteral": 7817,
      "PathParameter": 7818,
      "ĠNAME": 7819,
      "ĠNicHandle": 7820,
      "positories": 7821,
      "mitted": 7822,
      "Ġchanged": 7823,
      "ĠKnight": 7824,
      "Ġcompilation": 7825,
      "umbers": 7826,
      "ĠRemove": 7827,
      "Contents": 7828,
      "Ġsegment": 7829,
      "Ended": 7830,
      "ServletContext": 7831,
      "ĠAuthorizationRequest": 7832,
      "SERVER": 7833,
      "KEYW": 7834,
      "ĠEnvironment": 7835,
      "Ġ<}>\"<)><;><": 7836,
      "ĠStub": 7837,
      "ĠElementFilter": 7838,
      "Construct": 7839,
      "ShouldThrowExceptionIf": 7840,
      "transaction": 7841,
      "ANNOT": 7842,
      "ĠnumberOf": 7843,
      "ĠJavaBean": 7844,
      "iliana": 7845,
      "Terms": 7846,
      "Terminal": 7847,
      "Traits": 7848,
      "ĠRequestTokenFactory": 7849,
      "AwsSdkMetrics": 7850,
      "BigInteger": 7851,
      "ĠStateMachine": 7852,
      "isNotEqualTo": 7853,
      "ooster": 7854,
      "Ġattach": 7855,
      "complete": 7856,
      "ControlListManager": 7857,
      "StateMachineMatches": 7858,
      "Ġerrors": 7859,
      "ĠCaptureResponseHandler": 7860,
      "payload": 7861,
      "abcdefghijklmnopqrstuvw": 7862,
      "TransitionFunction": 7863,
      "\\\"<:><[>\\\"": 7864,
      "Expressions": 7865,
      "abcdefghijklmnopqrstuvwxyz": 7866,
      "</>\"": 7867,
      "</>\"<)><)><;><": 7868,
      "<}>\"<)><)><;><": 7869,
      "Histogram": 7870,
      "VIE": 7871,
      "acl": 7872,
      "bulk": 7873,
      "fect": 7874,
      "hurst": 7875,
      "iam": 7876,
      "none": 7877,
      "oPop": 7878,
      "schedule": 7879,
      "safe": 7880,
      "yv": 7881,
      "atht": 7882,
      "ened": 7883,
      "third": 7884,
      "replay": 7885,
      "ara": 7886,
      "isAbsolute": 7887,
      "edChannel": 7888,
      "getToken": 7889,
      "getAddress": 7890,
      "getExtension": 7891,
      "<(>\"\\\"": 7892,
      "Ġpassword": 7893,
      "Ġpartition": 7894,
      "ATTR": 7895,
      "avicon": 7896,
      "Top": 7897,
      "upplied": 7898,
      "cheme": 7899,
      "Ġreceived": 7900,
      "ĠMailMessage": 7901,
      "fered": 7902,
      "Ġgot": 7903,
      "ContextHolder": 7904,
      "ServiceProvider": 7905,
      "ĠElves": 7906,
      "OfIn": 7907,
      "ĠNec": 7908,
      "ĠresultMapping": 7909,
      "ĠVoid": 7910,
      "ResultData": 7911,
      "ialog": 7912,
      "ResourceLoader": 7913,
      "refreshToken": 7914,
      "authorized": 7915,
      "Room": 7916,
      "UpdatePlan": 7917,
      "compiles": 7918,
      "POEM": 7919,
      "ĠcreatePlayer": 7920,
      "ĠCardType": 7921,
      "194": 7922,
      "Ġequip": 7923,
      "Ġ\"<{>\"": 7924,
      "getByKeys": 7925,
      "ĠOAuthConsumer": 7926,
      "appendInternal": 7927,
      "listed": 7928,
      "Decoding": 7929,
      "akehurst": 7930,
      "ĠAnimate": 7931,
      "Agg": 7932,
      "Subscribe": 7933,
      "Ġopponents": 7934,
      "flu": 7935,
      "akes": 7936,
      "Ġworkspace": 7937,
      "Ġlistener": 7938,
      "ĠShardingContexts": 7939,
      "Opponent": 7940,
      "anced": 7941,
      "CharArray": 7942,
      "ĠnumberColumn": 7943,
      "ĠServer": 7944,
      "Heads": 7945,
      "placement": 7946,
      "Ġpool": 7947,
      "serialize": 7948,
      "Marker": 7949,
      "ĠServant": 7950,
      "Personal": 7951,
      "ĠmonitoringEvent": 7952,
      "</>..</>..": 7953,
      "tomakehurst": 7954,
      "CompletionInfo": 7955,
      "ĠRSA": 7956,
      "NaN": 7957,
      "ShouldNotThrowExceptionIf": 7958,
      "ĠBlade": 7959,
      "GraphPanelChartElement": 7960,
      "Alias": 7961,
      "getShortForm": 7962,
      "AdjacentIds": 7963,
      "VIEW": 7964,
      "athtouch": 7965,
      "ResultDataAccessException": 7966,
      "compilesWithout": 7967,
      "404": 7968,
      "Bad": 7969,
      "CERT": 7970,
      "Desc": 7971,
      "DOWN": 7972,
      "TIMESTAMP": 7973,
      "Us": 7974,
      "Var": 7975,
      "YW": 7976,
      "Zm": 7977,
      "call": 7978,
      "dem": 7979,
      "hav": 7980,
      "mt": 7981,
      "more": 7982,
      "mord": 7983,
      "too": 7984,
      "xC": 7985,
      "Ġase": 7986,
      "ĠStream": 7987,
      "ern": 7988,
      "aton": 7989,
      "atomic": 7990,
      "isel": 7991,
      "getTotal": 7992,
      "idden": 7993,
      "ades": 7994,
      "ĠLive": 7995,
      "ĠCredentials": 7996,
      "ĠCorp": 7997,
      "setup": 7998,
      "setMode": 7999,
      "imic": 8000,
      "updates": 8001,
      "Ġ22": 8002,
      "Ġ25": 8003,
      "ĠIRI": 8004,
      "Ġrejected": 8005,
      "redefined": 8006,
      "WithMultiple": 8007,
      "TokenFor": 8008,
      "ĠshouldRender": 8009,
      "Ġgh": 8010,
      "Collect": 8011,
      "roma": 8012,
      "subjectObject": 8013,
      "wrong": 8014,
      "ORIGIN": 8015,
      "Ġlike": 8016,
      "requestURL": 8017,
      "gacy": 8018,
      "CodeContains": 8019,
      "Compiler": 8020,
      "ĠaddElements": 8021,
      "111": 8022,
      "localTime": 8023,
      "ĠclientId": 8024,
      "eleter": 8025,
      "javaSource": 8026,
      "Decoder": 8027,
      "ĠregCenter": 8028,
      "Validators": 8029,
      "ConnectionPool": 8030,
      "decoded": 8031,
      "ĠSelection": 8032,
      "Ġshut": 8033,
      "ROUTES": 8034,
      "Seeds": 8035,
      "ĠJcrValue": 8036,
      "ĠActorBaseTest": 8037,
      "ĠtestCast": 8038,
      "OPTION": 8039,
      "Ġsubquery": 8040,
      "ĠjobScheduleController": 8041,
      "ĠEmptyNames": 8042,
      "plyTo": 8043,
      "ĠRole": 8044,
      "SDK": 8045,
      "Barrier": 8046,
      "PECIFIED": 8047,
      "Ġ\"<}>\"<;><": 8048,
      "samplerResult": 8049,
      "Ġhappens": 8050,
      "Steward": 8051,
      "Ġissue": 8052,
      "ĠViolationMatcher": 8053,
      "Memoized": 8054,
      "ĠBetaSteward": 8055,
      "IMPORT": 8056,
      "addAttributeSorted": 8057,
      "mordial": 8058,
      "82": 8059,
      "96": 8060,
      "AZ": 8061,
      "Csm": 8062,
      "Ey": 8063,
      "ERE": 8064,
      "Embed": 8065,
      "Goblin": 8066,
      "PART": 8067,
      "SK": 8068,
      "Side": 8069,
      "Something": 8070,
      "YP": 8071,
      "bc": 8072,
      "eel": 8073,
      "hierarchy": 8074,
      "ked": 8075,
      "late": 8076,
      "mk": 8077,
      "mask": 8078,
      "nTest": 8079,
      "nano": 8080,
      "rtr": 8081,
      "ux": 8082,
      "zed": 8083,
      "Ġargument": 8084,
      "onesh": 8085,
      "attributeType": 8086,
      "Ġ\"<(>": 8087,
      "isClosed": 8088,
      "getChildren": 8089,
      "star": 8090,
      "<(>\"\"<)>,": 8091,
      "Ġclose": 8092,
      "Ġcategory": 8093,
      "Ġsorted": 8094,
      "ĠsilvercoatLion": 8095,
      "ander": 8096,
      "ĠSampleResult": 8097,
      "setDeclared": 8098,
      "setCurrent": 8099,
      "Reset": 8100,
      "Ġdue": 8101,
      "Ġbulk": 8102,
      "ecret": 8103,
      "Ġwon": 8104,
      "Authn": 8105,
      "Ġconverter": 8106,
      "RequestMetrics": 8107,
      "toCharArray": 8108,
      "ĠRest": 8109,
      "ERATED": 8110,
      "comment": 8111,
      "Ġhello": 8112,
      "}>\"<)><;><": 8113,
      "owar": 8114,
      "emory": 8115,
      "parseValue": 8116,
      "ampion": 8117,
      "httpClient": 8118,
      "acked": 8119,
      "world": 8120,
      "failed": 8121,
      "ĠĠĠĠĠĠĠĠĠĠĠĠ": 8122,
      "OfDay": 8123,
      "Ġstored": 8124,
      "\\\"<}>,": 8125,
      "RunStop": 8126,
      "Ġattempt": 8127,
      "dep": 8128,
      "IDS": 8129,
      "ĠGod": 8130,
      "Detect": 8131,
      "Ġactivated": 8132,
      "lanowar": 8133,
      "Ġdeflated": 8134,
      "nextNode": 8135,
      "Ġencode": 8136,
      "FieldName": 8137,
      "Comment": 8138,
      "Generation": 8139,
      "Ġ<?>\",<": 8140,
      "Ġclazz": 8141,
      "00002": 8142,
      "Ġobjects": 8143,
      "PERATION": 8144,
      "Decode": 8145,
      "ĠcontentType": 8146,
      "MoreThan": 8147,
      "Colorless": 8148,
      "Disabled": 8149,
      "ĠemptyMap": 8150,
      "transport": 8151,
      "PolicyContexts": 8152,
      "Ġsigned": 8153,
      "ĠComplet": 8154,
      "Ġvalidation": 8155,
      "AssertionResult": 8156,
      "getNr": 8157,
      "ĠCounter": 8158,
      "SAMLResponse": 8159,
      "ShardingStrategy": 8160,
      "ĠshouldCreateTokenFor": 8161,
      "getColumnHolder": 8162,
      "BlacklistedSite": 8163,
      "SIZE": 8164,
      "crete": 8165,
      "Aggregator": 8166,
      "REFERE": 8167,
      "ComparisonScope": 8168,
      "Predicate": 8169,
      "<[><]><": 8170,
      "AgentConnector": 8171,
      "SuperTypeNames": 8172,
      "AWSS": 8173,
      "ĠWorld": 8174,
      "powerm": 8175,
      "trospection": 8176,
      "Escap": 8177,
      "ANNOTATION": 8178,
      "nanoTime": 8179,
      "oneshot": 8180,
      "setDeclaredSuperTypeNames": 8181,
      "REFERENCE": 8182,
      ".\",": 8183,
      "164": 8184,
      "53": 8185,
      "<!><": 8186,
      "Aware": 8187,
      "DEST": 8188,
      "Dark": 8189,
      "GRE": 8190,
      "NAQ": 8191,
      "OPERATION": 8192,
      "SLO": 8193,
      "Timer": 8194,
      "TKN": 8195,
      "Timing": 8196,
      "Ws": 8197,
      "WAR": 8198,
      "YX": 8199,
      "ber": 8200,
      "credential": 8201,
      "eu": 8202,
      "hvc": 8203,
      "ii": 8204,
      "ipt": 8205,
      "lap": 8206,
      "manager": 8207,
      "nith": 8208,
      "oZI": 8209,
      "pass": 8210,
      "present": 8211,
      "ways": 8212,
      "requires": 8213,
      "ani": 8214,
      "isAssigned": 8215,
[...]
